<unk>	0
<s>	0
</s>	0
<cls>	0
<sep>	0
<pad>	0
<mask>	0
<eod>	0
<eop>	0
.	0
(	0
)	0
"	0
-	0
–	0
£	0
€	0
,	-2.62418
的	-3.6247
。	-3.80553
、	-4.55903
在	-4.87688
“	-5.05067
了	-5.182
”	-5.19324
和	-5.27318
▁	-5.38475
是	-5.53994
中	-5.60264
月	-5.61196
人	-5.67957
有	-5.68863
上	-5.7085
不	-5.73045
日	-5.74337
为	-5.74977
一	-5.75116
大	-5.77951
年	-5.88887
将	-5.97064
:	-5.99598
对	-6.00001
7	-6.02911
6	-6.09363
后	-6.10755
等	-6.1206
1	-6.14257
与	-6.16629
时	-6.24145
到	-6.27545
3	-6.30951
说	-6.31505
中国	-6.32925
会	-6.36075
出	-6.38837
5	-6.39137
也	-6.39348
地	-6.39766
被	-6.4066
下	-6.415
小	-6.41976
2	-6.44048
就	-6.4437
从	-6.46057
他	-6.46782
新	-6.46816
市	-6.47196
多	-6.49198
而	-6.49798
以	-6.50939
》	-6.51171
我	-6.53406
高	-6.5431
家	-6.55283
4	-6.58749
这	-6.59545
《	-6.61017
前	-6.61481
车	-6.61815
。”	-6.62143
但	-6.63042
;	-6.63467
分	-6.64057
水	-6.67115
名	-6.68645
要	-6.69967
来	-6.7233
点	-6.73336
记者	-6.73714
个	-6.74685
天	-6.75817
三	-6.75867
公司	-6.76081
性	-6.76274
都	-6.78104
着	-6.78507
区	-6.79526
于	-6.80161
市场	-6.81525
用	-6.81639
子	-6.82637
向	-6.82855
元	-6.83381
并	-6.85139
长	-6.85766
内	-6.88437
10	-6.88735
好	-6.89178
过	-6.89549
发	-6.90734
表示	-6.91017
8	-6.92835
里	-6.93261
称	-6.93679
还	-6.94117
工作	-6.9569
手	-6.97041
该	-6.97145
外	-6.97308
开	-6.98668
企业	-6.99257
行	-6.99475
可	-7.00897
我们	-7.0138
万	-7.03573
金	-7.04088
国	-7.05217
化	-7.06881
已	-7.07023
0	-7.07099
得	-7.08135
?	-7.08138
两	-7.09075
图	-7.09564
及	-7.09896
其	-7.10695
进行	-7.10804
之	-7.11231
自	-7.1167
路	-7.11674
面	-7.13976
华	-7.14188
海	-7.14437
重	-7.14946
让	-7.1499
9	-7.15063
已经	-7.15577
生	-7.15629
队	-7.16087
山	-7.16532
看	-7.17108
所	-7.17481
起	-7.18042
心	-7.18354
能	-7.18468
头	-7.18716
局	-7.18857
20	-7.19014
她	-7.19266
没有	-7.19346
。“	-7.19981
机	-7.20017
期	-7.20177
一个	-7.20537
美国	-7.21162
场	-7.21584
目前	-7.21672
力	-7.21874
经济	-7.22603
入	-7.22735
成	-7.22771
打	-7.24094
给	-7.24239
王	-7.24563
特	-7.24864
比	-7.24951
无	-7.2508
斯	-7.25127
报	-7.25458
至	-7.26079
国家	-7.2618
张	-7.26674
最	-7.27322
发展	-7.27599
尔	-7.27878
县	-7.28265
部	-7.28418
去	-7.28633
省	-7.28955
者	-7.29754
法	-7.29858
线	-7.30089
今年	-7.30923
当	-7.30925
美	-7.32373
他们	-7.32432
位	-7.33639
由	-7.34981
拉	-7.34988
通过	-7.34991
投资	-7.35031
事	-7.3512
量	-7.35134
动	-7.36064
门	-7.36438
服务	-7.36496
19	-7.36742
建设	-7.37057
”。	-7.37215
号	-7.37357
2012	-7.37665
做	-7.37942
本	-7.37953
处	-7.38558
马	-7.38587
网	-7.3865
或	-7.38787
问题	-7.39111
达	-7.39647
政府	-7.3968
可以	-7.40404
A	-7.40474
银行	-7.40692
管理	-7.40798
文	-7.40983
老	-7.41106
电	-7.41112
30	-7.41226
项目	-7.41459
又	-7.42223
把	-7.42387
很	-7.42539
自己	-7.4267
价	-7.42748
德	-7.43199
据	-7.43285
强	-7.44455
活动	-7.44817
开始	-7.44881
方	-7.45514
李	-7.4567
全	-7.45928
城	-7.46209
女	-7.46211
总	-7.46307
国际	-7.47229
产品	-7.4778
:“	-7.48513
12	-7.48514
平	-7.48638
米	-7.49461
气	-7.49689
你	-7.50072
进	-7.50079
约	-7.50589
建	-7.50612
同	-7.50682
道	-7.51162
其中	-7.51389
利	-7.51546
口	-7.51677
身	-7.51847
股	-7.52615
正	-7.52851
周	-7.52989
东	-7.53051
发现	-7.5396
某	-7.54416
再	-7.54787
价格	-7.54841
南	-7.54945
台	-7.55094
更	-7.55362
商	-7.55434
克	-7.55497
风	-7.55659
定	-7.56895
北京	-7.56968
花	-7.57126
次	-7.57274
C	-7.57452
近	-7.57864
万元	-7.58001
安全	-7.58274
走	-7.58282
亿元	-7.58535
认为	-7.58634
西	-7.59393
体	-7.59419
收	-7.59774
因	-7.60673
这个	-7.60886
站	-7.61236
15	-7.61281
11	-7.61927
学	-7.61976
回	-7.62134
就是	-7.62368
球	-7.62636
社会	-7.62957
明	-7.63033
保	-7.63135
想	-7.63262
二	-7.63281
却	-7.63357
卡	-7.63642
人员	-7.6373
安	-7.64448
每	-7.64956
度	-7.6537
只	-7.65746
政策	-7.65942
村	-7.65944
四	-7.66181
单	-7.66295
加	-7.6634
科	-7.66511
清	-7.66797
·	-7.66917
工	-7.67131
/	-7.67353
时间	-7.67412
林	-7.67451
民	-7.67694
战	-7.67802
世界	-7.68007
通	-7.6841
主	-7.68489
转	-7.68569
中心	-7.68815
业	-7.68816
数	-7.69163
军	-7.69647
技术	-7.69801
情	-7.6981
赛	-7.70063
受	-7.70148
18	-7.70297
一些	-7.70433
交	-7.70551
首	-7.70876
红	-7.71024
陈	-7.71324
制	-7.719
热	-7.72063
流	-7.72208
如果	-7.72263
爱	-7.72445
级	-7.72469
情况	-7.72588
实	-7.72613
光	-7.7274
基金	-7.73511
出现	-7.74326
率	-7.74351
低	-7.7465
因为	-7.74709
城市	-7.75029
户	-7.75466
钱	-7.75468
同时	-7.75512
全国	-7.75783
罗	-7.76233
北	-7.76296
费	-7.76501
成为	-7.76673
各	-7.76714
以及	-7.76837
五	-7.77197
类	-7.77329
意	-7.77666
报道	-7.77778
们	-7.78261
房	-7.78361
资金	-7.78366
发生	-7.78618
应	-7.7921
黄	-7.7947
16	-7.79545
增长	-7.79941
S	-7.80002
要求	-7.80052
文化	-7.80555
原	-7.80791
现在	-7.80833
办	-7.8088
这些	-7.80918
对于	-7.80976
没	-7.81138
现场	-7.81534
州	-7.8181
书	-7.81811
未	-7.82001
如	-7.82387
白	-7.82512
25	-7.82834
江	-7.83111
上海	-7.8319
刘	-7.83454
影响	-7.83501
部门	-7.83649
十	-7.84738
楼	-7.8505
组织	-7.8523
需要	-7.85258
那	-7.85373
选	-7.85427
带	-7.85481
14	-7.85737
行业	-7.8618
共	-7.86262
难	-7.8646
亚	-7.86533
作为	-7.86561
百	-7.87104
公	-7.87298
13	-7.8777
接	-7.87793
深	-7.88187
案	-7.88543
孩子	-7.8898
由于	-7.891
联	-7.89453
经	-7.89545
均	-7.89752
岁	-7.90099
第	-7.90158
店	-7.90167
则	-7.90262
合作	-7.90373
相	-7.90498
双	-7.9067
生产	-7.9078
i	-7.91049
河	-7.9133
作	-7.91423
系统	-7.91574
M	-7.91701
超	-7.92528
调	-7.92763
生活	-7.92773
传	-7.92874
病	-7.9323
才	-7.93299
龙	-7.9333
可能	-7.9345
空	-7.93591
50	-7.93836
增	-7.93859
信息	-7.94119
21	-7.94122
进入	-7.94397
合	-7.94406
连	-7.94671
P	-7.94719
17	-7.94783
组	-7.94835
标准	-7.94839
党	-7.95062
型	-7.95104
销售	-7.95305
日本	-7.95335
学生	-7.95343
种	-7.9542
放	-7.95662
主要	-7.96116
还是	-7.96358
买	-7.96396
根据	-7.96412
使用	-7.96436
住	-7.96525
权	-7.96666
规定	-7.96916
地区	-7.97006
使	-7.9731
火	-7.97423
落	-7.97562
第一	-7.97751
这一	-7.98014
声	-7.98183
员	-7.98272
集团	-7.98353
相关	-7.9842
镇	-7.98679
B	-7.98905
款	-7.99246
阿	-7.99526
信	-7.99689
部分	-7.99971
此	-8.00051
方面	-8.00186
22	-8.00409
边	-8.00684
提供	-8.00812
送	-8.0089
巴	-8.00898
非	-8.01425
像	-8.0153
研究	-8.0164
间	-8.0187
吃	-8.02165
品	-8.02312
e	-8.0246
实施	-8.02593
曾	-8.02753
但是	-8.02851
会议	-8.0297
院	-8.03037
!	-8.03038
计划	-8.0342
油	-8.03423
布	-8.03473
占	-8.0353
24	-8.03746
格	-8.03915
机构	-8.03979
眼	-8.04247
支持	-8.04349
片	-8.04737
媒体	-8.05042
教育	-8.05135
一直	-8.05262
昨日	-8.05739
伤	-8.06081
关	-8.06266
D	-8.06345
几	-8.06375
希望	-8.06415
大学	-8.06427
包	-8.06464
工程	-8.06693
26	-8.06763
阳	-8.06824
日电	-8.07363
节	-8.07449
正在	-8.0763
先	-8.07739
变	-8.07917
之后	-8.07936
余	-8.07952
太	-8.08291
T	-8.08316
理	-8.08321
调查	-8.08345
证	-8.08385
管	-8.08458
轮	-8.08506
便	-8.0887
28	-8.09005
基本	-8.09165
包括	-8.09618
市民	-8.09638
牌	-8.09651
汽车	-8.10021
其他	-8.10027
实现	-8.10056
环境	-8.10185
介绍	-8.10302
星	-8.10444
运	-8.10457
进一步	-8.1051
立	-8.10532
致	-8.10823
非常	-8.10848
远	-8.11329
继续	-8.11487
较	-8.11797
代	-8.11895
27	-8.1192
增加	-8.11937
不过	-8.1204
物	-8.12334
旅游	-8.12367
都是	-8.12406
产业	-8.12565
超过	-8.12597
虽然	-8.12884
参加	-8.1325
指	-8.13465
这是	-8.13544
去年	-8.1357
英国	-8.13572
取	-8.13957
提高	-8.14001
雷	-8.14098
防	-8.14138
查	-8.14365
2011	-8.14462
医院	-8.14466
委	-8.14496
停	-8.14958
达到	-8.15105
少	-8.1566
亿	-8.15731
盘	-8.1621
装	-8.16268
往	-8.16327
代表	-8.16387
早	-8.1643
半	-8.16539
感	-8.16774
一次	-8.1716
值	-8.17287
卖	-8.17579
23	-8.17607
一名	-8.17769
o	-8.17848
先生	-8.17905
解	-8.18027
剧	-8.18085
报告	-8.18334
国内	-8.18395
比赛	-8.18445
证券	-8.18533
居民	-8.18622
见	-8.18696
任	-8.18724
我国	-8.18969
获得	-8.18981
反	-8.18983
还有	-8.19266
飞	-8.19327
自己的	-8.19422
看到	-8.19424
开展	-8.19671
税	-8.19689
石	-8.19992
条	-8.20127
不能	-8.20193
基	-8.20205
交易	-8.20393
乐	-8.20528
器	-8.20814
问	-8.20824
源	-8.20968
干	-8.20971
专家	-8.2102
持续	-8.21241
快	-8.2135
纳	-8.21639
复	-8.21791
完成	-8.21832
酒	-8.21856
业务	-8.22089
式	-8.22163
选择	-8.22241
药	-8.22278
单位	-8.22289
预	-8.22329
产	-8.22343
质	-8.22487
水平	-8.22504
儿	-8.22511
农	-8.22675
不少	-8.22853
仍	-8.23211
提	-8.2337
直	-8.2338
造成	-8.23613
200	-8.2371
雨	-8.23879
展	-8.23926
尼	-8.2397
游	-8.23978
讯	-8.24089
也是	-8.24115
学校	-8.24482
底	-8.24566
29	-8.24887
男子	-8.24961
显示	-8.25146
班	-8.25447
全球	-8.25532
救	-8.25715
左右	-8.26183
这种	-8.26185
能力	-8.26889
品牌	-8.26961
未来	-8.27065
奖	-8.27169
I	-8.27211
男	-8.2729
昨天	-8.27386
杨	-8.27456
100	-8.27456
手机	-8.27496
黑	-8.27513
存	-8.27555
个人	-8.27665
真	-8.27873
宝	-8.27893
千	-8.28177
举行	-8.28191
标	-8.2874
网络	-8.28901
香港	-8.28912
因此	-8.28934
票	-8.29257
团	-8.29455
死	-8.29765
留	-8.29817
六	-8.29888
收入	-8.29929
正式	-8.30141
获	-8.30252
40	-8.30275
数据	-8.30278
关系	-8.30408
此次	-8.3043
换	-8.30538
科技	-8.30661
存在	-8.30866
奥运	-8.30911
不断	-8.30915
色	-8.31036
加强	-8.31046
额	-8.31053
不是	-8.31083
集	-8.31198
沙	-8.31228
近日	-8.31297
发布	-8.31353
八	-8.31406
血	-8.31488
以上	-8.31571
月份	-8.31843
现	-8.3214
什么	-8.32144
失	-8.32183
O	-8.32252
令	-8.32303
排	-8.32385
a	-8.3249
G	-8.32589
政	-8.32798
士	-8.3292
字	-8.3292
胜	-8.32973
分钟	-8.33039
支	-8.33094
以来	-8.332
园	-8.33364
离	-8.33505
所有	-8.33569
跟	-8.337
交通	-8.33872
维	-8.34067
调整	-8.34075
客	-8.34077
预计	-8.34099
波	-8.34213
视	-8.34403
精	-8.34687
领	-8.34692
下降	-8.34697
方式	-8.34882
解决	-8.35366
E	-8.35401
按	-8.35421
网友	-8.35441
教	-8.35479
压	-8.35499
观	-8.35533
届	-8.35647
言	-8.35659
成功	-8.3567
保护	-8.36003
投	-8.36102
经过	-8.36102
改	-8.36168
创新	-8.36447
积极	-8.36479
常	-8.36487
升	-8.36579
60	-8.3666
航	-8.36712
金融	-8.36724
第二	-8.3684
套	-8.36888
博	-8.36925
古	-8.36952
它	-8.36984
需	-8.37158
副	-8.37212
参与	-8.37275
导致	-8.3728
富	-8.37359
女士	-8.37684
关注	-8.37716
随着	-8.37784
亲	-8.37873
经营	-8.3791
云	-8.38249
最终	-8.38288
甚至	-8.38411
明显	-8.38679
件	-8.3877
今天	-8.38849
警	-8.39237
L	-8.39482
资	-8.39637
设计	-8.39764
很多	-8.39779
湖	-8.39881
微	-8.40115
结果	-8.40206
极	-8.40223
刚	-8.40292
不会	-8.40434
当时	-8.40474
来自	-8.40672
程	-8.40772
项	-8.41038
组图	-8.41318
决定	-8.4137
最高	-8.41394
师	-8.41446
这样	-8.41482
资源	-8.41746
保险	-8.41787
倒	-8.42098
需求	-8.42166
上涨	-8.42305
为了	-8.4254
社	-8.42611
比较	-8.42669
越	-8.42695
风险	-8.42803
足	-8.42866
关于	-8.42903
而且	-8.42919
步	-8.43122
即	-8.43224
兴	-8.43319
专业	-8.43486
初	-8.43783
措施	-8.43825
广州	-8.43967
按照	-8.43987
兰	-8.4408
满	-8.44115
指出	-8.44183
冠军	-8.44288
指数	-8.44322
奥	-8.44435
减	-8.44588
只有	-8.44613
板	-8.44686
务	-8.44805
吴	-8.44845
银	-8.44888
神	-8.45213
广	-8.45332
直接	-8.45461
目标	-8.45627
田	-8.45633
话	-8.45753
层	-8.45766
样	-8.45785
日前	-8.45822
到了	-8.45869
属	-8.45883
重点	-8.45947
接受	-8.46055
有关	-8.46071
一位	-8.46117
室	-8.46351
发行	-8.46631
仅	-8.46674
写	-8.47015
首次	-8.47035
专	-8.47196
宁	-8.472
校	-8.4721
除	-8.47252
别	-8.47289
居	-8.47449
奇	-8.47543
福	-8.47607
表	-8.47617
准备	-8.47669
所以	-8.47672
配	-8.47683
投资者	-8.47796
助	-8.47813
严重	-8.47994
夏	-8.48013
破	-8.48157
80	-8.48358
险	-8.48408
皮	-8.48745
菜	-8.48816
谈	-8.48912
食品	-8.48943
警方	-8.48944
段	-8.49052
制度	-8.49162
健康	-8.49519
中央	-8.49542
两个	-8.4959
限	-8.49713
叙利亚	-8.49846
歌	-8.4985
期间	-8.49898
塔	-8.49932
消息	-8.50134
差	-8.50245
击	-8.50271
购买	-8.50276
应该	-8.50301
网站	-8.50473
冲	-8.50821
如何	-8.50943
货	-8.50961
F	-8.5102
的是	-8.51085
养	-8.51184
岛	-8.51189
社区	-8.51248
招	-8.51259
综合	-8.51415
一家	-8.51461
桥	-8.51637
全面	-8.51653
能够	-8.51674
工作人员	-8.51791
春	-8.51968
推出	-8.52015
考	-8.52023
00	-8.52035
版	-8.52036
假	-8.52114
召开	-8.52196
核	-8.52477
护	-8.52558
个月	-8.52566
联合	-8.5266
职	-8.52705
世	-8.5272
语	-8.5273
何	-8.52797
船	-8.52819
季	-8.52887
家庭	-8.52972
准	-8.53019
电话	-8.53128
跌	-8.53187
是否	-8.53281
处理	-8.53431
结	-8.53485
笑	-8.535
消费者	-8.53526
规模	-8.5355
征	-8.53601
群众	-8.53831
公开	-8.53832
求	-8.53894
有限公司	-8.54025
街	-8.54054
望	-8.5456
推	-8.54563
规划	-8.5477
派	-8.54824
提出	-8.54847
降	-8.55029
推进	-8.55071
港	-8.5524
武	-8.55456
提升	-8.55492
势	-8.5554
画	-8.55733
人民	-8.55776
乡	-8.55838
宣布	-8.55842
苏	-8.5589
创	-8.56197
温	-8.56273
服	-8.56345
大家	-8.56467
不仅	-8.56521
志	-8.56669
永	-8.56693
工业	-8.56759
消费	-8.56798
稳定	-8.56854
伦敦	-8.57106
夜	-8.57179
检查	-8.57393
售	-8.57469
修	-8.57471
行为	-8.57577
责任	-8.57633
控	-8.5785
泰	-8.57881
全部	-8.579
跑	-8.57906
2010	-8.57939
丽	-8.57943
一起	-8.57992
任务	-8.58053
体育	-8.58386
条件	-8.58449
t	-8.58461
馆	-8.58555
改革	-8.58639
压力	-8.58649
质量	-8.58689
的时候	-8.58819
连续	-8.58856
重要	-8.58868
再次	-8.5894
之前	-8.58994
普	-8.58995
并不	-8.59053
七	-8.59097
不同	-8.59221
算	-8.59297
平均	-8.59329
营	-8.59479
照	-8.59593
射	-8.59646
财政	-8.59666
座	-8.59692
义	-8.59883
容	-8.60077
倍	-8.60122
精神	-8.60143
追	-8.60237
进行了	-8.60299
味	-8.6037
景	-8.60427
鱼	-8.60473
开发	-8.60573
威	-8.6064
R	-8.60724
俄罗斯	-8.60763
深圳	-8.60782
保障	-8.60791
孙	-8.60876
当地	-8.60881
夫	-8.6089
▁本报讯	-8.60924
轻	-8.61097
秀	-8.61097
民警	-8.61121
公告	-8.61183
学习	-8.61187
控制	-8.61221
执行	-8.61419
监管	-8.616
涨	-8.61751
得到	-8.62055
事件	-8.62124
岁的	-8.62155
分别	-8.62157
评	-8.62202
表现	-8.62225
朋友	-8.6228
伟	-8.6229
彩	-8.62446
举	-8.62607
之一	-8.6263
树	-8.62657
赵	-8.62659
听	-8.62729
具	-8.62743
预期	-8.62758
N	-8.62837
必须	-8.62927
利用	-8.62938
晚	-8.62991
青	-8.63203
微博	-8.63301
成本	-8.63435
具有	-8.63516
然	-8.63648
试	-8.63657
人士	-8.63745
牛	-8.63748
脚	-8.63777
随	-8.63794
保持	-8.63809
列	-8.6386
界	-8.64132
切	-8.64167
毒	-8.64374
!”	-8.64479
拿	-8.64549
新闻	-8.64561
西班牙	-8.64609
玩	-8.647
叫	-8.64781
电影	-8.64882
销	-8.65221
英	-8.65229
s	-8.65472
共同	-8.655
卫	-8.65556
上市	-8.65629
有效	-8.65665
领域	-8.6574
香	-8.65791
随后	-8.65854
穿	-8.65865
独	-8.65925
官	-8.65982
空间	-8.66288
最大	-8.66415
建立	-8.66458
统计	-8.66579
中的	-8.66631
内容	-8.66893
请	-8.66951
载	-8.67027
最后	-8.67065
股份	-8.67067
来看	-8.67268
除了	-8.67277
注	-8.67391
拍	-8.67395
启动	-8.67443
形	-8.67544
贷款	-8.67565
衣	-8.67577
建议	-8.67724
无法	-8.67783
找	-8.67847
土	-8.67978
此外	-8.68032
分析	-8.68153
架	-8.68169
申请	-8.68274
影	-8.68328
行动	-8.68366
厅	-8.68572
来说	-8.68659
用户	-8.68743
退	-8.68752
当天	-8.68921
委员会	-8.68923
意见	-8.6896
检	-8.69138
针对	-8.69142
300	-8.69228
冷	-8.6926
伊	-8.69272
第三	-8.69374
厂	-8.69456
一样	-8.69506
车辆	-8.69546
促进	-8.69597
500	-8.69709
告诉记者	-8.69793
密	-8.69851
杀	-8.70046
整	-8.70133
素	-8.70146
命	-8.70309
亿美元	-8.705
透露	-8.70551
受到	-8.70711
起来	-8.70772
帮助	-8.70951
目	-8.70973
形成	-8.70988
平台	-8.71046
行政	-8.71065
短	-8.71142
美元	-8.71289
双方	-8.71393
法院	-8.71451
人们	-8.71533
紧	-8.71615
只是	-8.71631
急	-8.71645
盛	-8.72016
果	-8.72134
欧洲	-8.72171
客户	-8.72174
上半年	-8.72177
晓	-8.72251
木	-8.72259
方案	-8.72282
▁视频	-8.72336
合同	-8.72438
迪	-8.72489
那么	-8.72492
领导	-8.72588
驻	-8.72628
环	-8.72867
利率	-8.72875
采取	-8.72891
他的	-8.72916
推动	-8.72947
小时	-8.73118
设	-8.73126
历史	-8.73172
德国	-8.7325
完	-8.73308
优势	-8.7375
供	-8.73874
付	-8.73961
顺	-8.74016
易	-8.7409
掉	-8.74129
下跌	-8.74152
这样的	-8.74208
顶	-8.74298
功能	-8.74479
造	-8.74662
传统	-8.74773
长期	-8.74778
折	-8.74888
批	-8.7498
球员	-8.75088
阶段	-8.75096
过去	-8.7514
奥运会	-8.75181
法律	-8.75199
记	-8.75327
近期	-8.75374
附近	-8.75507
台湾	-8.75525
汉	-8.7553
九	-8.75564
总统	-8.75598
出来	-8.75804
导	-8.75882
呢	-8.75942
重庆	-8.76234
h	-8.7649
抢	-8.76541
其实	-8.76692
哈	-8.76724
减少	-8.76739
治	-8.76811
或者	-8.76824
d	-8.77045
艺术	-8.77147
负	-8.77174
洪	-8.77437
惊	-8.77443
价值	-8.77468
明确	-8.77551
胡	-8.776
V	-8.77602
断	-8.7761
p	-8.77932
这次	-8.77954
待	-8.77991
g	-8.78182
股票	-8.78298
贵	-8.78396
铁	-8.78438
借	-8.78486
航天员	-8.78531
食	-8.78576
训练	-8.78588
优	-8.78613
公布	-8.78777
上的	-8.78781
讲	-8.79003
司机	-8.79042
小区	-8.79137
本次	-8.79199
另外	-8.79203
演	-8.79211
吧	-8.79343
拥有	-8.79395
将在	-8.79665
宣传	-8.79704
丹	-8.79731
面积	-8.79744
梅	-8.79952
地方	-8.80095
负责人	-8.80108
更加	-8.80134
球队	-8.8019
且	-8.80363
靠	-8.80468
草	-8.80633
获悉	-8.80753
编	-8.80827
静	-8.80833
租	-8.8087
一定	-8.80903
签	-8.80971
模式	-8.80972
天气	-8.80985
计	-8.81003
相比	-8.81238
资产	-8.81246
补	-8.81323
尽	-8.81373
自然	-8.81501
印	-8.81504
一般	-8.81508
亮	-8.81516
状态	-8.81547
完全	-8.8158
韩国	-8.81634
m	-8.8183
肉	-8.82043
对此	-8.82079
今	-8.82328
农业	-8.82444
齐	-8.82467
成立	-8.82501
70	-8.82649
女子	-8.82846
通知	-8.83125
托	-8.83128
企	-8.83225
不到	-8.83227
结束	-8.8333
出口	-8.83336
细	-8.834
原因	-8.83593
此前	-8.83614
任何	-8.8363
截至	-8.83692
吉	-8.83712
▁中新网	-8.83766
日讯	-8.83772
喜	-8.83782
操作	-8.83866
佳	-8.83923
实际	-8.83933
戏	-8.84085
知	-8.84092
产生	-8.84094
怎么	-8.84115
了一	-8.84156
位于	-8.84231
笔	-8.84269
因素	-8.84307
面对	-8.84348
一年	-8.84351
广东	-8.84561
库	-8.84646
90	-8.8465
许多	-8.84665
设备	-8.84755
玉	-8.84789
吗	-8.84949
作用	-8.85211
事故	-8.85334
散	-8.85354
购	-8.854
集中	-8.85422
一种	-8.85549
联系	-8.85558
甲	-8.85598
围	-8.85619
音	-8.85642
也不	-8.85702
根	-8.85801
整体	-8.85899
萨	-8.85941
公里	-8.85952
央行	-8.86016
思	-8.8612
法国	-8.86275
绝	-8.86276
卫生	-8.86405
取得	-8.86458
特别	-8.86737
人的	-8.86801
建筑	-8.86936
变化	-8.87208
有些	-8.87286
遭	-8.87291
基础	-8.874
举办	-8.87406
净	-8.87412
康	-8.87431
谁	-8.87468
人民币	-8.87517
徐	-8.87522
”、“	-8.87602
具体	-8.87746
藏	-8.87758
据了解	-8.87761
交流	-8.87806
H	-8.87865
医	-8.87939
系	-8.88065
面临	-8.88088
区域	-8.88188
考生	-8.88239
了解	-8.88341
电子	-8.88368
尽管	-8.88393
战略	-8.88406
老人	-8.88505
钢	-8.88554
来到	-8.88613
论	-8.88619
各种	-8.8862
成绩	-8.88628
雅	-8.88753
35	-8.88852
叶	-8.88906
争	-8.88947
K	-8.88951
料	-8.89029
抓	-8.89055
汇	-8.89097
活	-8.89223
主席	-8.8946
久	-8.89508
群	-8.89584
偏	-8.89602
止	-8.89696
结构	-8.89706
速	-8.89859
的人	-8.89866
选手	-8.89992
正常	-8.90064
运行	-8.90149
公共	-8.90326
幕	-8.90362
更多	-8.90417
守	-8.90427
餐	-8.90599
杯	-8.90612
努力	-8.9073
旗	-8.91011
干部	-8.91093
农村	-8.91108
参	-8.91339
基地	-8.91398
堂	-8.9181
许	-8.91919
毛	-8.91952
探	-8.92012
宜	-8.92153
瓦	-8.92181
杰	-8.92248
知道	-8.92269
访	-8.92283
输	-8.92326
坚持	-8.92401
突然	-8.92555
谢	-8.92574
出了	-8.92613
朱	-8.92687
主任	-8.92709
如此	-8.92738
费用	-8.92784
档	-8.9281
一场	-8.92873
索	-8.93175
成交	-8.93199
角	-8.93204
持	-8.93219
视频	-8.93315
缩	-8.93341
体系	-8.93426
礼	-8.93457
意大利	-8.93472
扬	-8.93481
菲	-8.93508
案件	-8.93567
机会	-8.93682
机制	-8.93726
引发	-8.93849
确定	-8.93902
最新	-8.9404
电视	-8.94048
支付	-8.94172
松	-8.94371
5%	-8.94386
协议	-8.94453
数据显示	-8.94519
31	-8.94585
也有	-8.94673
商品	-8.94683
塞	-8.94766
监督	-8.94822
绿	-8.94931
?”	-8.95123
潮	-8.95221
坐	-8.95418
露	-8.95467
l	-8.95588
荣	-8.95633
巡	-8.95652
烟	-8.95693
大幅	-8.95994
异	-8.96065
勇	-8.96095
伦敦奥运会	-8.96125
保证	-8.96198
材	-8.96227
日晚	-8.96376
十分	-8.96561
必	-8.96639
翻	-8.96681
洗	-8.96693
c	-8.96749
罪	-8.96751
韩	-8.9676
重大	-8.9686
通讯员	-8.96994
板块	-8.97006
引	-8.97028
登	-8.972
老师	-8.97314
降低	-8.97353
机场	-8.97373
y	-8.97491
缺	-8.97548
日上午	-8.97602
严	-8.97653
跳	-8.97673
关键	-8.97698
学院	-8.97703
符合	-8.97717
效果	-8.97758
大量	-8.97835
突破	-8.97939
贴	-8.97979
最近	-8.98145
债	-8.98256
整个	-8.98282
逃	-8.98313
范围	-8.98418
过程中	-8.98512
投入	-8.98545
脸	-8.98592
采	-8.98676
大型	-8.98696
同比	-8.98702
示	-8.98805
扩大	-8.98877
枪	-8.98886
业绩	-8.98916
普通	-8.98991
依然	-8.99016
备	-8.99027
瑞	-8.99078
的问题	-8.99203
酒店	-8.99273
测	-8.99287
两人	-8.99361
兵	-8.9945
庆	-8.99492
感觉	-8.99565
家长	-8.99635
科学	-8.99695
▁北京时间	-8.99748
哥	-8.99766
对手	-8.99781
灯	-8.99817
例	-8.99818
抽	-9.00052
负责	-9.00125
暴雨	-9.00126
弱	-9.00128
冰	-9.00162
伦	-9.00262
上升	-9.00306
房地产	-9.00317
节目	-9.00447
铁路	-9.00461
只能	-9.00462
数量	-9.0058
监	-9.00665
境	-9.00784
有人	-9.00811
聚	-9.00846
然而	-9.00863
挂	-9.00912
确保	-9.00927
道路	-9.00954
免	-9.00963
运动	-9.00963
私	-9.0097
采用	-9.00977
及时	-9.0106
反映	-9.01079
债券	-9.01154
安排	-9.01162
零	-9.01187
比例	-9.01188
将于	-9.01199
就业	-9.01203
归	-9.01239
一辆	-9.01449
伊朗	-9.01545
观众	-9.01641
加快	-9.0179
撞	-9.01817
苦	-9.01837
当前	-9.01881
快速	-9.01954
禁	-9.01991
良	-9.02157
抗	-9.02239
若	-9.02306
历	-9.02547
有所	-9.02558
峰	-9.02568
加大	-9.02626
注意	-9.02735
足球	-9.02855
迅速	-9.02968
洛	-9.02999
封	-9.03068
儿子	-9.03134
日下午	-9.03161
规范	-9.03229
梁	-9.03278
喝	-9.03332
政治	-9.03407
即将	-9.0343
音乐	-9.03455
▁“	-9.03515
曲	-9.0353
人口	-9.03532
方向	-9.03553
完善	-9.03648
免费	-9.03715
鲁	-9.03729
郭	-9.03783
勒	-9.03814
杜	-9.03889
丰	-9.0392
刑	-9.04087
全省	-9.04098
惠	-9.04139
游客	-9.0415
展开	-9.04374
降息	-9.04382
野	-9.04458
洋	-9.04599
融资	-9.04727
章	-9.04802
秒	-9.04864
欧	-9.04887
贸易	-9.04959
垃圾	-9.04975
喜欢	-9.05006
之间	-9.05032
土地	-9.05083
做好	-9.05093
球迷	-9.0511
收费	-9.05193
侧	-9.05284
日消息	-9.053
各地	-9.05368
金额	-9.0538
收益	-9.05402
含	-9.05404
全市	-9.05417
豆	-9.05543
潜	-9.05691
避	-9.05775
女性	-9.0589
末	-9.06024
协会	-9.06099
出台	-9.06111
据悉	-9.06137
友	-9.06162
沉	-9.06196
顿	-9.06204
审	-9.0637
每天	-9.06422
~	-9.06455
骨	-9.06457
乱	-9.06617
培训	-9.06689
阵	-9.06804
赞	-9.06874
身体	-9.06997
几乎	-9.07112
终	-9.07258
u	-9.07366
块	-9.07397
决赛	-9.07437
开放	-9.07487
属于	-9.07644
读	-9.07711
每年	-9.07752
施工	-9.0776
尚	-9.07811
杭州	-9.07957
承	-9.07961
临	-9.07995
n	-9.08027
移动	-9.08036
蒂	-9.08065
鞋	-9.08076
飞行	-9.08078
川	-9.08138
凯	-9.08224
唱	-9.08313
采访	-9.08369
优惠	-9.08388
南京	-9.0847
脱	-9.08478
32	-9.08481
死亡	-9.08617
W	-9.08631
不足	-9.08642
相对	-9.08656
端	-9.08668
庄	-9.08673
只要	-9.08763
新疆	-9.08852
蓝	-9.08878
强调	-9.09071
议	-9.09073
茶	-9.09127
苹果	-9.09141
宏	-9.09145
新的	-9.09151
息	-9.09237
打造	-9.09268
36	-9.09316
雪	-9.09334
不得	-9.09408
的重要	-9.09445
处于	-9.0958
年度	-9.09644
2009	-9.09712
时候	-9.09911
涨幅	-9.09915
人数	-9.09969
仓	-9.09972
较大	-9.10253
辆	-9.10316
豪	-9.10338
族	-9.10391
诺	-9.10553
竞争	-9.1058
财	-9.10609
才能	-9.10696
巨	-9.10709
材料	-9.10728
继	-9.10767
题	-9.10783
广告	-9.10917
带来	-9.1095
成都	-9.10965
摄	-9.1097
大会	-9.10973
扣	-9.1098
环保	-9.10992
弹	-9.11069
如今	-9.11092
商业	-9.11121
立即	-9.11204
一天	-9.11293
下调	-9.11359
考虑	-9.11522
现象	-9.1158
村民	-9.11696
众	-9.11713
课	-9.11835
是一个	-9.11901
不要	-9.11928
莫	-9.11973
恢复	-9.12059
痛	-9.12061
犯罪	-9.12195
更是	-9.12203
过程	-9.12205
出席	-9.123
厚	-9.12424
员工	-9.12553
京	-9.12578
同样	-9.12581
记者从	-9.12706
父亲	-9.12711
股东	-9.12807
最大的	-9.12815
45	-9.12837
效	-9.12949
办理	-9.13008
游戏	-9.1301
烧	-9.1305
迷	-9.13054
办法	-9.13122
消防	-9.1316
错	-9.13192
典	-9.13224
发挥	-9.13237
高考	-9.13279
旧	-9.13293
左	-9.13297
600	-9.13335
莱	-9.1339
宽	-9.13413
容易	-9.13464
作品	-9.13484
背	-9.13769
女儿	-9.1378
工商	-9.13872
利益	-9.13989
经验	-9.1406
岸	-9.14202
反弹	-9.14209
7%	-9.14307
1000	-9.14324
盖	-9.14369
事业	-9.14414
史	-9.14424
儿童	-9.14478
同比增长	-9.14481
这里	-9.14515
他说	-9.14798
°	-9.14812
人才	-9.15002
既	-9.15007
范	-9.15027
涉及	-9.15116
】	-9.15134
今日	-9.15154
隆	-9.15208
俄	-9.15232
席	-9.15236
赶	-9.15343
激	-9.15362
现代	-9.15371
民族	-9.15428
籍	-9.1548
宫	-9.15551
小学	-9.15604
害	-9.15638
纯	-9.15666
on	-9.15668
+	-9.15836
郑	-9.15856
协	-9.15858
400	-9.15879
觉得	-9.15937
刀	-9.16006
赛季	-9.1606
2000	-9.1619
录	-9.16317
欧洲杯	-9.16342
2008	-9.16504
最低	-9.1668
驾驶	-9.16727
录取	-9.16757
黄金	-9.16839
深入	-9.16876
宗	-9.16909
艺	-9.16909
武汉	-9.17015
下半年	-9.17056
99	-9.17096
让人	-9.17146
告诉	-9.17147
智	-9.17159
核心	-9.1719
官员	-9.17227
遇	-9.17291
灵	-9.17336
泽	-9.17373
并且	-9.1746
日起	-9.17531
状况	-9.17619
很大	-9.17689
宇	-9.17714
呼	-9.1787
U	-9.18012
朝	-9.18039
的情况	-9.18113
作出	-9.18128
提前	-9.18274
恐	-9.18477
乌	-9.18579
遭遇	-9.18627
趋势	-9.18638
制造	-9.18669
比如	-9.18682
乘	-9.18727
圈	-9.18745
仍然	-9.18861
诉	-9.18921
位置	-9.18946
疑	-9.18951
延	-9.18971
一下	-9.18972
多个	-9.19037
暴	-9.19042
浙江	-9.19075
摆	-9.19314
矿	-9.19317
找到	-9.19341
施	-9.19358
灾	-9.19384
墙	-9.19412
利润	-9.19484
井	-9.19521
卷	-9.19556
治疗	-9.19632
印度	-9.19738
困难	-9.19742
麦	-9.19757
吨	-9.19873
您	-9.19897
梦	-9.19927
an	-9.19948
跨	-9.20062
恩	-9.20063
上述	-9.20151
规	-9.20309
9%	-9.20336
改善	-9.20377
启	-9.20398
简	-9.20515
昌	-9.20546
浮	-9.20546
戴	-9.2057
煤	-9.2103
下来	-9.21053
成了	-9.21104
统一	-9.21127
回应	-9.21158
引起	-9.21194
陆	-9.2127
两年	-9.2134
涉	-9.21352
嘉	-9.21414
国务院	-9.21535
37	-9.216
途	-9.21623
北京市	-9.21691
说明	-9.21699
纸	-9.2174
享受	-9.2176
返	-9.21772
横	-9.21842
k	-9.21891
丁	-9.21907
增速	-9.2193
父母	-9.2194
力度	-9.21964
医疗	-9.21968
告	-9.2206
改变	-9.22102
日在	-9.22189
饭	-9.22221
不可	-9.22271
速度	-9.22335
er	-9.22358
序	-9.2238
鲜	-9.22582
妈妈	-9.22595
模	-9.22647
森	-9.22672
母	-9.2268
时代	-9.22716
石油	-9.22864
了解到	-9.22872
攻	-9.23069
基层	-9.23204
液	-9.2328
交警	-9.23329
指导	-9.23367
系列	-9.23419
拟	-9.23504
落实	-9.23695
一条	-9.2372
脑	-9.23725
几个	-9.23897
蒙	-9.23969
晚上	-9.24085
回落	-9.2413
以下	-9.24142
充分	-9.2419
特色	-9.24232
账	-9.2426
登记	-9.24298
舞	-9.24339
离开	-9.24344
冠	-9.24375
城区	-9.24377
四川	-9.24472
帮	-9.24475
俱乐部	-9.24488
33	-9.24525
锦	-9.24537
违法	-9.24571
进口	-9.24612
万人	-9.24648
论坛	-9.2469
职业	-9.24692
肯定	-9.24718
严格	-9.24759
每个	-9.24965
挑战	-9.25023
床	-9.25166
青年	-9.25229
右	-9.25236
下滑	-9.25288
响	-9.25361
有望	-9.254
宣	-9.2557
仪式	-9.25653
善	-9.25679
童	-9.25699
曼	-9.2572
官方	-9.25772
认	-9.26002
生态	-9.26037
贝	-9.26057
丰富	-9.26156
工资	-9.26235
运动员	-9.26252
机关	-9.26345
实力	-9.26398
乘客	-9.26412
指标	-9.2642
妻子	-9.2647
乳	-9.26576
划	-9.26731
纷纷	-9.26735
姆	-9.26766
淡	-9.26806
改造	-9.26807
考试	-9.26838
欲	-9.26856
爆	-9.26897
谷	-9.26947
应用	-9.26983
低于	-9.26997
目的	-9.27022
的发展	-9.2703
山东	-9.27039
钟	-9.27106
队员	-9.27108
成员	-9.27177
都有	-9.27241
粉	-9.27348
瓶	-9.27439
并没有	-9.27493
都会	-9.27512
办公室	-9.27512
置	-9.27575
38	-9.2761
母亲	-9.27723
第一次	-9.2778
赴	-9.27965
伯	-9.28081
方法	-9.28184
榜	-9.28194
补贴	-9.28194
然后	-9.28207
经常	-9.28229
股份有限公司	-9.28236
飞机	-9.2825
网上	-9.28265
功	-9.28267
损失	-9.28347
虎	-9.28424
对方	-9.2843
哪	-9.2859
欧盟	-9.28792
青岛	-9.28798
伴	-9.28816
鼓励	-9.28892
]	-9.28956
首先	-9.29034
[	-9.29167
了一个	-9.29268
咨询	-9.29342
医生	-9.29347
创造	-9.29362
丝	-9.2941
股市	-9.29425
上周	-9.29488
一份	-9.29603
愿	-9.29754
答	-9.29874
住房	-9.30049
设立	-9.30103
主题	-9.30145
至少	-9.30168
这么	-9.30193
刻	-9.30199
采购	-9.30204
年轻	-9.30263
略	-9.30281
唐	-9.30305
夺	-9.30537
储	-9.30559
b	-9.30564
沿	-9.30632
经历	-9.30653
骗	-9.30691
普遍	-9.307
偷	-9.30701
尾	-9.30724
扎	-9.30781
体验	-9.30823
公园	-9.30824
的话	-9.30844
毕业	-9.30856
形式	-9.30861
高速	-9.30908
广场	-9.31021
捕	-9.31117
累计	-9.3115
团队	-9.31158
距离	-9.31165
驾	-9.31166
近年来	-9.31178
电脑	-9.31196
锋	-9.31207
真正	-9.31213
节能	-9.31308
诗	-9.31314
接到	-9.31324
纪	-9.31379
志愿	-9.3141
三个	-9.31423
透	-9.31427
生命	-9.31444
程度	-9.31475
决	-9.31496
秋	-9.31582
硬	-9.31633
诚	-9.31653
时许	-9.31669
拍卖	-9.31716
职工	-9.31852
箱	-9.31877
环比	-9.31887
实行	-9.31902
词	-9.31972
犯	-9.32187
共有	-9.32247
我省	-9.32268
能源	-9.32345
汤	-9.32364
敏	-9.32439
自由	-9.3246
给予	-9.32565
终于	-9.32566
文明	-9.32697
担心	-9.32792
公布的	-9.32796
组成	-9.32838
废	-9.32893
暗	-9.32975
婚	-9.33021
帅	-9.3303
湖南	-9.3303
稳	-9.33032
▁本报	-9.3306
资格	-9.33067
燃	-9.33095
预算	-9.33098
平方米	-9.33203
以后	-9.33276
拖	-9.33317
合理	-9.33351
邮	-9.33392
阴	-9.33453
坚	-9.3366
误	-9.33708
凉	-9.33736
下午	-9.33755
气象	-9.33875
震	-9.33924
多次	-9.34058
维护	-9.34143
重新	-9.34181
洲	-9.34182
越来越	-9.34237
劳	-9.34324
播	-9.34508
洁	-9.34695
东西	-9.34724
日报	-9.34764
满足	-9.34798
结合	-9.34869
拍摄	-9.34893
我的	-9.3494
日报道	-9.34954
前往	-9.35029
时尚	-9.35137
供应	-9.35138
迫	-9.35195
制定	-9.35198
就会	-9.35292
。《	-9.35403
意义	-9.35404
难以	-9.35437
一点	-9.35519
域	-9.35566
女孩	-9.3557
剩	-9.35643
顺利	-9.35646
计算	-9.35663
暑	-9.35724
非法	-9.35775
现金	-9.35806
上了	-9.35809
游泳	-9.3589
主动	-9.35917
信心	-9.35929
老板	-9.35967
申	-9.36077
圣	-9.36093
为主	-9.36113
湾	-9.36264
资料	-9.36266
刚刚	-9.36372
触	-9.36393
振	-9.36529
公益	-9.3653
天津	-9.36535
应对	-9.36592
尤其是	-9.36598
迎来	-9.36635
著名	-9.36716
执法	-9.36732
泉	-9.36811
力量	-9.36889
刺激	-9.36891
侨	-9.36925
怀	-9.36966
的时间	-9.37
▁新华网	-9.37007
设施	-9.37094
年前	-9.37192
食品安全	-9.37255
个百分点	-9.3733
意外	-9.37405
众多	-9.3743
恋	-9.37475
适	-9.37587
名单	-9.37706
特别是	-9.37785
的情况下	-9.37884
而是	-9.38123
X	-9.38142
吸引	-9.38159
腿	-9.38174
展示	-9.38291
存款	-9.38347
回家	-9.38376
孔	-9.38438
简单	-9.38534
互	-9.38567
心理	-9.38781
专项	-9.38795
当然	-9.38817
进球	-9.38936
动力	-9.38954
上市公司	-9.38989
顾	-9.39025
故事	-9.39058
航空	-9.39088
冬	-9.39142
方便	-9.39231
怕	-9.39261
联赛	-9.39262
遗	-9.39294
农民	-9.39349
另	-9.3945
部署	-9.39499
欧元	-9.39531
招生	-9.39542
救援	-9.39552
承担	-9.39559
患者	-9.39629
限制	-9.39632
揭	-9.39667
啊	-9.39734
涉嫌	-9.39781
本报	-9.39836
联合国	-9.39964
斌	-9.40008
希腊	-9.40014
确实	-9.40136
根本	-9.40137
年来	-9.40288
令人	-9.40304
习	-9.40322
大部分	-9.40358
抱	-9.40461
幅度	-9.40665
逐渐	-9.40698
缓	-9.40763
这位	-9.40803
队伍	-9.40839
执	-9.40847
比赛中	-9.40896
试点	-9.40931
质疑	-9.41227
兼	-9.41285
▁中国	-9.41343
吸	-9.41349
本周	-9.41366
份	-9.41453
倾	-9.41568
88	-9.41788
广大	-9.41805
逐步	-9.41817
充	-9.41928
搜狐	-9.41943
总体	-9.42003
移	-9.42041
亚洲	-9.42075
监测	-9.42082
的小	-9.42229
是在	-9.42272
先后	-9.42322
住宅	-9.42385
表演	-9.424
用于	-9.42465
冒	-9.42482
依	-9.42538
月底	-9.42556
支出	-9.42562
—	-9.42629
岗	-9.42666
年底	-9.42676
舰	-9.42706
做出	-9.42847
辉	-9.42862
长沙	-9.42882
增强	-9.42895
救助	-9.42956
各项	-9.42964
的影响	-9.43018
纪录	-9.43062
承诺	-9.43114
江苏	-9.43161
河南	-9.43182
照片	-9.43244
发表	-9.43316
w	-9.43507
忙	-9.43559
解释	-9.43587
两名	-9.43638
艾	-9.4371
残	-9.4373
意识	-9.43739
民众	-9.43779
34	-9.43791
突出	-9.438
电力	-9.43823
谋	-9.43828
金牌	-9.43829
in	-9.43878
罚	-9.43892
她的	-9.439
羊	-9.43982
会上	-9.44052
排名	-9.44123
账户	-9.44143
广西	-9.4415
另一	-9.44158
避免	-9.44226
选举	-9.44354
股权	-9.44438
他们的	-9.44521
多少	-9.4454
专门	-9.44599
48	-9.4461
浓	-9.44714
阻	-9.44797
将会	-9.4482
患	-9.44873
隔	-9.44892
男人	-9.4493
更多的	-9.45044
呈现	-9.45072
确认	-9.45205
▁7	-9.45252
以前	-9.45255
时期	-9.4526
体现	-9.45317
维修	-9.45331
情绪	-9.45378
狗	-9.45394
洞	-9.45478
形象	-9.45578
原来	-9.45599
公交	-9.45678
街道	-9.4571
篮	-9.45754
佩	-9.4577
感到	-9.45852
还要	-9.45864
显	-9.45888
恶	-9.45939
贷	-9.45944
运输	-9.45997
朗	-9.4603
超市	-9.46035
骑	-9.46037
小组	-9.46125
代表团	-9.46167
加盟	-9.46187
程序	-9.46229
领先	-9.46265
曾经	-9.46333
滑	-9.46386
先进	-9.46389
第四	-9.46398
希	-9.46526
珠	-9.46547
的新	-9.46556
维持	-9.46589
经理	-9.46621
欢迎	-9.46714
全新	-9.46801
知识	-9.46804
毁	-9.46838
销量	-9.46893
幸福	-9.46912
扩	-9.46931
湿	-9.46955
屋	-9.46984
调控	-9.47035
走势	-9.47065
应当	-9.47209
症	-9.47319
运营	-9.47393
收购	-9.474
日凌晨	-9.47433
8%	-9.4744
窗	-9.47523
高温	-9.47565
态	-9.47571
酸	-9.47582
固	-9.47763
覆盖	-9.47811
认真	-9.47819
形势	-9.47834
2%	-9.4784
我们的	-9.47865
而言	-9.47982
日至	-9.48054
原则	-9.4814
治理	-9.48173
披露	-9.48221
俊	-9.48302
渠道	-9.48323
饰	-9.48328
铺	-9.48328
派出所	-9.48361
技	-9.48409
剂	-9.4842
3%	-9.48568
凡	-9.48605
为什么	-9.48618
取消	-9.48672
加入	-9.48683
数字	-9.48732
一项	-9.48807
短期	-9.48886
报名	-9.4889
使得	-9.48932
那些	-9.48989
优秀	-9.48997
似乎	-9.49083
袭击	-9.49139
房屋	-9.49184
导演	-9.49214
注册	-9.49336
在北京	-9.49535
空调	-9.49553
教师	-9.4957
女人	-9.49571
癌	-9.49582
畅	-9.49621
55	-9.49629
至今	-9.4969
旁	-9.49703
跌幅	-9.4971
消	-9.49716
总理	-9.49898
默	-9.49975
生物	-9.50074
认识	-9.50106
批准	-9.50117
危机	-9.5015
南部	-9.50161
耳	-9.50224
高校	-9.50255
协调	-9.50384
等地	-9.50397
填	-9.50398
真的	-9.50423
汽	-9.505
检测	-9.50518
续	-9.50576
年龄	-9.50588
胶	-9.50604
柳	-9.50641
独立	-9.50677
隐	-9.50865
斗	-9.5088
成果	-9.50917
大力	-9.50972
研发	-9.51007
迹	-9.51015
象	-9.51068
都在	-9.51068
内部	-9.51151
紧张	-9.51174
1%	-9.51182
的大	-9.5135
家里	-9.51355
相信	-9.51373
挺	-9.51411
危险	-9.51428
公众	-9.51636
迎	-9.51678
鹏	-9.5181
练	-9.5188
高达	-9.51884
益	-9.51927
互联网	-9.5195
湖北	-9.51959
司	-9.52013
欧元区	-9.52038
ar	-9.52067
f	-9.52097
4%	-9.52207
并未	-9.52386
愿意	-9.52386
地铁	-9.52469
宋	-9.5249
筹	-9.52585
卢	-9.5266
池	-9.52669
码	-9.52673
一切	-9.52778
警察	-9.5282
肥	-9.52832
地产	-9.52855
证明	-9.52979
资本	-9.52983
就在	-9.52986
责	-9.53008
收到	-9.53011
贡献	-9.53029
楼市	-9.53047
提醒	-9.53319
发出	-9.53336
800	-9.53379
拒绝	-9.53431
摇	-9.53453
讨论	-9.53507
佛	-9.53571
出租车	-9.53588
的方式	-9.5359
唯一	-9.53611
明星	-9.53737
自主	-9.53868
调研	-9.53894
刊	-9.5397
制作	-9.5397
加工	-9.54016
败	-9.54035
圆	-9.54075
律师	-9.54191
寿	-9.54205
几天	-9.54247
火箭	-9.54256
推荐	-9.54372
文件	-9.54418
币	-9.54419
些	-9.54592
多年	-9.54601
劳动	-9.54674
身份	-9.54723
袋	-9.54758
焦	-9.54793
出版	-9.54833
态度	-9.54933
品种	-9.54976
蔬菜	-9.55035
雄	-9.55038
再度	-9.55053
赢	-9.55065
闻	-9.55181
积	-9.55206
来的	-9.55282
家人	-9.55337
幅	-9.55498
映	-9.5555
迈	-9.55714
年的	-9.55778
发展的	-9.55793
知名	-9.55901
多名	-9.55923
成长	-9.55963
临时	-9.55971
引导	-9.56019
同学	-9.56037
劲	-9.5605
竞	-9.56067
喊	-9.56126
初步	-9.56227
》、《	-9.5628
120	-9.56283
自身	-9.56378
遇到	-9.564
记录	-9.56519
不知道	-9.56569
灾害	-9.56588
公交车	-9.56758
营养	-9.5682
工人	-9.56837
带着	-9.56861
医药	-9.56869
瓜	-9.56964
觉	-9.56966
43	-9.57053
设置	-9.57076
盐	-9.57097
不好	-9.57132
特殊	-9.57142
于是	-9.57182
示范	-9.57202
频	-9.5723
剑	-9.57295
俗	-9.57387
民间	-9.5739
娜	-9.57452
疾病	-9.57588
身上	-9.57589
你们	-9.57591
支撑	-9.5764
炎	-9.57676
上午	-9.57704
新增	-9.57734
公斤	-9.5784
即使	-9.57912
猛	-9.5793
穆	-9.57937
芳	-9.57941
杆	-9.57961
指挥	-9.58037
【	-9.58052
巧	-9.58064
的同时	-9.58069
虫	-9.58087
州市	-9.58089
最佳	-9.58092
乔	-9.58097
污染	-9.58104
软件	-9.58148
升级	-9.58154
巴西	-9.5817
精彩	-9.58225
广泛	-9.58234
摩	-9.58357
不再	-9.58407
85	-9.5846
创业	-9.58479
3000	-9.58501
同意	-9.58522
教授	-9.58526
妆	-9.58528
作业	-9.58584
地震	-9.58599
一致	-9.58618
盗	-9.58638
故	-9.58652
各类	-9.58689
智能	-9.58716
拼	-9.58788
特点	-9.58804
一系列	-9.58862
捐	-9.58875
闪	-9.58947
多元	-9.58949
业主	-9.58987
晨	-9.58994
帕	-9.59089
育	-9.59104
泡	-9.59123
桑	-9.59236
违	-9.59257
屏	-9.59338
盈利	-9.59381
最后一	-9.59384
紧急	-9.59417
党员	-9.59482
纽约	-9.5952
毒品	-9.59648
39	-9.59674
订	-9.59691
评价	-9.59705
感受	-9.59726
海洋	-9.59747
正是	-9.59864
搭	-9.59867
夏季	-9.59894
配置	-9.59915
埃及	-9.6
庭	-9.60074
出现了	-9.60109
房子	-9.60122
缘	-9.60155
餐饮	-9.60217
担任	-9.60225
和平	-9.6023
本届	-9.60265
期货	-9.60269
艳	-9.60345
赔偿	-9.60469
润	-9.60473
审计	-9.60621
虚	-9.60637
津	-9.60695
委书记	-9.60714
表明	-9.60768
经济增长	-9.60798
货币	-9.60893
队的	-9.60901
配合	-9.60905
持有	-9.60919
献	-9.60927
反应	-9.60938
后来	-9.61002
两国	-9.61034
65	-9.61152
媒体报道	-9.61207
市场的	-9.61221
自动	-9.61244
部队	-9.61262
预测	-9.61287
安装	-9.61298
值得	-9.61316
个股	-9.61415
的地方	-9.61441
期待	-9.61532
伏	-9.61581
推广	-9.61593
旺	-9.61623
98	-9.61623
海外	-9.61637
热情	-9.61659
并非	-9.61709
抵	-9.61737
主义	-9.61784
车型	-9.61798
集体	-9.61841
毫米	-9.61908
琳	-9.61916
动物	-9.61926
小姐	-9.61948
详细	-9.61965
欢	-9.62016
自治区	-9.62046
纪念	-9.6213
今后	-9.62141
手段	-9.62174
扫	-9.6224
从而	-9.62303
伙	-9.62332
西部	-9.62341
也会	-9.62353
念	-9.6236
开幕式	-9.62405
打击	-9.62487
闹	-9.62557
旅客	-9.62622
军事	-9.62724
绿色	-9.62781
性的	-9.62813
教练	-9.62956
睡	-9.62972
似	-9.63055
达成	-9.63076
粽子	-9.63143
工具	-9.63269
内地	-9.63269
山西	-9.63275
变成	-9.63323
高峰	-9.63338
依法	-9.63361
周边	-9.63404
现实	-9.63408
不错	-9.6341
仁	-9.63435
接近	-9.63488
航天	-9.63496
良好	-9.63506
很快	-9.63601
委员	-9.63624
营销	-9.63701
欣	-9.63721
搞	-9.63733
两岸	-9.63747
真实	-9.63756
福建	-9.63762
000	-9.63814
49	-9.63824
栋	-9.63852
澳大利亚	-9.6389
必要	-9.64117
晶	-9.64154
仪	-9.6416
贵州	-9.64166
轿车	-9.64202
药品	-9.64277
首都	-9.64281
坊	-9.64299
忘	-9.643
搬	-9.64314
奥巴马	-9.64467
国有	-9.64479
5000	-9.64513
是因为	-9.64529
突	-9.64534
万美元	-9.64593
三年	-9.646
96	-9.64602
从事	-9.64604
魔	-9.64644
一旦	-9.64648
在中国	-9.64649
相当	-9.64653
薪	-9.64654
中华	-9.64737
悬	-9.64745
寻	-9.64835
诊	-9.64854
就能	-9.649
勤	-9.64915
司法	-9.64923
敌	-9.64926
都不	-9.64927
受伤	-9.64958
路段	-9.64974
高级	-9.64995
南海	-9.65075
56	-9.65103
大学生	-9.6513
亩	-9.65141
的一个	-9.65167
坏	-9.65179
兑	-9.65205
房价	-9.65257
市政府	-9.65259
半年	-9.65344
薄	-9.65386
大赛	-9.65387
济南	-9.65418
援	-9.65503
妙	-9.65551
一度	-9.65567
转移	-9.65575
一周	-9.65672
邀请	-9.65686
有了	-9.65795
中国队	-9.65866
北部	-9.65885
收盘	-9.65904
组合	-9.65966
稀土	-9.66007
两次	-9.66026
附	-9.66027
链	-9.66088
府	-9.66115
腰	-9.66139
下行	-9.66282
58	-9.66301
处罚	-9.66317
采访时	-9.66359
en	-9.66513
场比赛	-9.66519
通报	-9.66698
摊	-9.66741
冯	-9.66764
公安	-9.66793
是个	-9.66852
弃	-9.66861
声音	-9.66886
高端	-9.66887
我市	-9.67006
鸡	-9.67021
甘	-9.67042
午	-9.67049
沃	-9.67051
赫	-9.67052
工作的	-9.67069
径	-9.6708
苗	-9.67146
栏	-9.67203
日电据	-9.67244
狂	-9.67248
10%	-9.6726
收益率	-9.67273
有可能	-9.67301
办公	-9.67304
候	-9.67356
对外	-9.67404
公司的	-9.67523
报警	-9.67551
多家	-9.67573
东方	-9.67586
建成	-9.67616
强烈	-9.67633
蔡	-9.67676
发布的	-9.67846
董	-9.67906
演出	-9.67981
里的	-9.68043
温州	-9.68061
糖	-9.68066
带来的	-9.6807
亮相	-9.68123
怪	-9.68124
50%	-9.68131
毫	-9.68136
演员	-9.68139
麻	-9.68139
行情	-9.68226
阳光	-9.68294
@	-9.683
手术	-9.68336
当日	-9.68367
回到	-9.68441
签订	-9.68442
记者在	-9.68479
民生	-9.68577
湘	-9.68626
袭	-9.68631
规则	-9.68643
高于	-9.68666
47	-9.68692
的主要	-9.68694
什	-9.68739
爆炸	-9.68815
工厂	-9.68837
损	-9.68861
很好	-9.68877
奔	-9.68921
烈	-9.68941
发射	-9.69041
太空	-9.6907
捷	-9.69147
食物	-9.6917
及其	-9.69203
42	-9.69204
摸	-9.69212
可是	-9.69279
沟	-9.69289
敬	-9.69375
所谓	-9.69386
一批	-9.69483
59	-9.69547
里面	-9.69549
两天	-9.6955
万吨	-9.69561
还在	-9.69619
人物	-9.69656
意味着	-9.6969
偶	-9.69861
外国	-9.69908
零售	-9.69973
主要是	-9.69986
壮	-9.70018
珍	-9.70027
95	-9.70027
最多	-9.70039
还将	-9.70074
赢得	-9.70102
裁	-9.70119
理念	-9.70147
当地时间	-9.70196
门口	-9.70348
分析师	-9.70354
缴	-9.7038
男篮	-9.7039
公路	-9.70423
打开	-9.70451
签约	-9.70457
丢	-9.70469
好的	-9.70508
冲击	-9.7055
放在	-9.70573
大盘	-9.70618
鼓	-9.70646
忠	-9.70653
铜	-9.7067
很难	-9.70676
坛	-9.70723
世纪	-9.70726
放松	-9.7073
6%	-9.70753
操	-9.70778
高度	-9.70812
反对	-9.70858
监控	-9.70866
肖	-9.70893
▁6	-9.70914
可能会	-9.7103
寻找	-9.7106
大约	-9.71115
滨	-9.71148
董事长	-9.71198
环节	-9.71206
发放	-9.71292
个小时	-9.71491
震荡	-9.71631
文物	-9.71659
二季度	-9.71709
对象	-9.71743
市区	-9.71745
含量	-9.71748
尖	-9.71772
燕	-9.71778
城镇	-9.71781
年内	-9.71818
济	-9.71847
卓	-9.71928
始	-9.72004
景区	-9.72015
而在	-9.72056
试验	-9.72162
争夺	-9.72184
油价	-9.72211
车主	-9.7224
渔	-9.72283
中学	-9.72318
三大	-9.72339
埃	-9.725
裂	-9.72595
讨	-9.72647
柜	-9.72691
腾	-9.72741
誉	-9.72744
经济发展	-9.72764
国外	-9.7286
饮	-9.72863
业内人士	-9.72875
总额	-9.72893
地下	-9.7291
岗位	-9.72987
20%	-9.72999
赔	-9.73
长江	-9.73042
牵	-9.73074
胸	-9.73096
证实	-9.73137
动作	-9.73155
醒	-9.73187
牙	-9.73187
熟	-9.73192
理解	-9.73232
坡	-9.73253
具备	-9.73263
测试	-9.73271
刺	-9.73381
叙	-9.73411
师傅	-9.73481
等方面	-9.73516
开幕	-9.73563
停车	-9.73596
路口	-9.73601
理财	-9.73617
贩	-9.73623
电视台	-9.73681
挡	-9.73751
澳	-9.73776
她们	-9.73787
热点	-9.73818
仅仅	-9.73838
线路	-9.73873
祥	-9.7391
脂	-9.73918
之外	-9.74
第十	-9.74015
霍	-9.74048
拿到	-9.74146
过来	-9.7423
健	-9.74271
累	-9.74329
缓解	-9.74418
城乡	-9.74436
飞船	-9.74499
来源	-9.74499
缺乏	-9.74534
为此	-9.74537
亦	-9.74538
暂	-9.74542
颇	-9.74542
也在	-9.74581
恒	-9.74594
衡	-9.74613
旅	-9.74617
配套	-9.74646
地面	-9.74652
已有	-9.74676
往往	-9.7469
针	-9.74725
朝鲜	-9.74745
以为	-9.74765
副主任	-9.74786
整治	-9.74797
耐	-9.74867
,2011	-9.7491
赛场	-9.74932
祖	-9.74988
声明	-9.74988
实习生	-9.75087
广播	-9.75111
居住	-9.75111
地位	-9.75131
逐	-9.75185
耗	-9.75186
强化	-9.75231
保险公司	-9.75251
通道	-9.75272
始终	-9.75362
舍	-9.75383
土耳其	-9.75393
类似	-9.75425
75	-9.75546
迁	-9.75568
适合	-9.75596
尼亚	-9.75658
开发商	-9.757
事实	-9.75803
轨	-9.75816
灭	-9.7588
沈阳	-9.75888
募	-9.75954
主力	-9.7596
妇	-9.75992
图片	-9.75999
侵	-9.76035
威胁	-9.76046
起了	-9.76066
邓	-9.76106
有着	-9.7616
证监会	-9.76196
涛	-9.76223
培养	-9.76238
在此	-9.76289
绝对	-9.76295
岩	-9.76384
彭	-9.76399
方面的	-9.76497
看来	-9.76521
举行的	-9.76548
煤炭	-9.76548
堵	-9.76579
人大常委会	-9.76599
巨大	-9.76688
趣	-9.7669
君	-9.76722
违规	-9.76739
52	-9.76755
中小企业	-9.76801
预警	-9.76855
评估	-9.76877
逼	-9.76893
68	-9.769
评论	-9.76938
强大	-9.76941
检察院	-9.76943
加上	-9.76965
休	-9.77032
充满	-9.77096
家电	-9.7714
物业	-9.77148
毕业生	-9.77229
J	-9.77236
加拿大	-9.77254
自行车	-9.77267
轻松	-9.77283
猪	-9.77304
不同的	-9.77329
享	-9.77366
律	-9.77378
一张	-9.77417
海域	-9.77512
券商	-9.77535
不久	-9.77541
广州市	-9.77541
事发	-9.77578
斤	-9.77685
海南	-9.77689
艘	-9.77751
来了	-9.77779
购物	-9.77786
神九	-9.77804
季度	-9.77852
嘴	-9.77889
堆	-9.77919
泰国	-9.77926
进展	-9.78005
软	-9.78018
大众	-9.78037
人死亡	-9.78061
习惯	-9.78109
沪	-9.78174
应急	-9.78194
周期	-9.78204
一边	-9.78242
姜	-9.7825
冲突	-9.78287
奖励	-9.78308
围绕	-9.78316
云南	-9.7836
等待	-9.78455
佛山	-9.78486
路上	-9.78721
陷	-9.78722
甜	-9.78795
陆续	-9.78816
岭	-9.78821
争议	-9.78822
重要的	-9.78852
多数	-9.78953
上演	-9.78971
术	-9.78981
观察	-9.78993
到底	-9.79058
参赛	-9.79068
碰	-9.79112
番	-9.79129
大队	-9.79158
桃	-9.79166
酷	-9.79247
中午	-9.79258
秘	-9.79285
考察	-9.79334
讲话	-9.79376
危	-9.79386
秘书长	-9.79501
夺冠	-9.7956
54	-9.79575
回升	-9.79627
or	-9.79627
44	-9.79656
玻璃	-9.79796
忧	-9.798
哭	-9.79803
英雄	-9.79819
思想	-9.79883
据介绍	-9.79941
锁	-9.79971
今年以来	-9.80007
流通	-9.80037
的生活	-9.80073
股价	-9.80133
也将	-9.80155
桂	-9.80168
研	-9.80191
议会	-9.80202
抵达	-9.8027
同期	-9.80309
信号	-9.80315
弗	-9.80382
之间的	-9.80445
有关部门	-9.80512
牧	-9.80527
北京时间	-9.80535
的工作	-9.80564
听到	-9.80609
列车	-9.80643
识	-9.80654
高中	-9.80696
溪	-9.807
它们	-9.80711
押	-9.8072
书记	-9.80765
天下体育	-9.8077
武装	-9.80806
理论	-9.80857
退休	-9.80877
服装	-9.80888
复杂	-9.80892
分别为	-9.80917
赛事	-9.80917
签署	-9.81034
幸	-9.81041
文章	-9.81047
他在	-9.81061
场所	-9.81067
浪	-9.81134
感谢	-9.81158
种植	-9.81184
皇	-9.81191
全力	-9.81244
最好	-9.81363
红色	-9.81365
慢	-9.81382
物质	-9.81382
娱乐	-9.81413
娃	-9.81427
的价格	-9.8145
满意	-9.81537
通信	-9.81557
署	-9.81557
焦点	-9.81573
纵	-9.81595
实际上	-9.81688
▁据	-9.81691
07	-9.8175
允许	-9.81758
此时	-9.81762
快递	-9.81772
妇女	-9.81812
相应	-9.81872
宾	-9.81917
判	-9.81946
霸	-9.81972
CBA	-9.81996
爱心	-9.82038
广东省	-9.82109
降雨	-9.82145
较高	-9.82202
食用	-9.82247
新区	-9.82292
发言人	-9.82308
金属	-9.82418
衣服	-9.82469
周年	-9.82482
平时	-9.82592
5%,	-9.8261
78	-9.8262
欠	-9.82678
柱	-9.82701
沟通	-9.82792
桌	-9.82827
钓鱼岛	-9.82884
装备	-9.82941
一个月	-9.82979
重视	-9.83003
禁止	-9.83059
53	-9.83133
成交量	-9.83139
97	-9.8315
潘	-9.83194
×	-9.832
营业	-9.83204
承认	-9.83205
援助	-9.83295
v	-9.83508
山区	-9.83512
漫	-9.83523
风格	-9.83541
刷	-9.83554
暑期	-9.83596
平安	-9.83661
政协	-9.83711
炮	-9.83766
也没有	-9.83841
防止	-9.83849
做到	-9.83867
迟	-9.83884
每月	-9.83913
杂	-9.83917
鸟	-9.83927
塘	-9.8393
机械	-9.83953
商务	-9.83964
GDP	-9.84055
实验	-9.84079
陵	-9.84092
拳	-9.84133
龄	-9.8415
信用	-9.84167
VS	-9.8417
述	-9.84241
投票	-9.84247
辽宁	-9.84299
菲律宾	-9.84312
蜜	-9.8433
郑州	-9.84415
航班	-9.84422
多种	-9.84484
竹	-9.84486
贸	-9.845
浩	-9.84641
表达	-9.84651
切实	-9.84683
养老金	-9.84713
或许	-9.84723
的消息	-9.84726
武器	-9.84782
替	-9.84802
商家	-9.84878
砸	-9.84994
主体	-9.85046
尚未	-9.85056
安徽	-9.85087
显得	-9.8509
虽	-9.85169
辅	-9.85178
英格兰	-9.85196
天宫一号	-9.85197
显然	-9.85206
此事	-9.85214
玛	-9.85232
晚报	-9.85357
申花	-9.85452
曝光	-9.85452
相关负责人	-9.85492
一代	-9.85513
深度	-9.85541
跃	-9.85563
人群	-9.85584
以上的	-9.8561
海军	-9.85684
十二五	-9.85751
延续	-9.8577
郎	-9.85778
直到	-9.85779
丈夫	-9.85781
适应	-9.85807
地点	-9.85839
信贷	-9.85903
2007	-9.85909
稿	-9.8594
霞	-9.85972
放弃	-9.85989
包装	-9.86037
中间	-9.86061
确	-9.86104
趋	-9.86124
事情	-9.86138
转型	-9.86234
部长	-9.86273
时刻	-9.86316
▁近日	-9.86317
提供了	-9.86356
在一起	-9.86425
非洲	-9.86453
壁	-9.8653
债务	-9.86561
频道	-9.86581
审批	-9.86592
志愿者	-9.86646
繁	-9.86685
碎	-9.86712
状	-9.86719
57	-9.86744
留下	-9.86795
竟	-9.86866
二是	-9.87002
就有	-9.87047
考核	-9.8705
93	-9.87054
概念	-9.87062
汗	-9.87064
控股	-9.8708
▁《	-9.87103
用电	-9.87191
忍	-9.87261
态势	-9.87273
胜利	-9.87297
角度	-9.87369
寄	-9.87418
制造业	-9.8742
月初	-9.87437
国债	-9.87478
总经理	-9.87513
策略	-9.87645
年代	-9.87674
今年上半年	-9.87723
去年同期	-9.87839
暨	-9.87859
献血	-9.88045
引进	-9.88051
66	-9.88069
商标	-9.88085
比分	-9.88156
走进	-9.88163
稍	-9.88211
休息	-9.88211
得知	-9.88334
地说	-9.88365
训	-9.88388
况	-9.88489
:1	-9.88576
为何	-9.88585
惜	-9.88591
别人	-9.88598
86	-9.88604
就可以	-9.88661
行驶	-9.88682
150	-9.88727
理由	-9.88737
库存	-9.8874
净利润	-9.88765
遭到	-9.8878
主持	-9.88808
的原因	-9.88818
是一种	-9.88825
无论	-9.88836
一块	-9.88838
黑色	-9.88882
出生	-9.8894
十年	-9.88946
泪	-9.88956
记者王	-9.88957
堪	-9.88966
养老	-9.89038
受灾	-9.8904
沈	-9.89104
联盟	-9.89219
摄影	-9.89294
膜	-9.89326
皮肤	-9.89396
在内的	-9.89435
和谐	-9.89436
浦	-9.89536
理财产品	-9.89537
拘	-9.89554
地区的	-9.89555
截	-9.89557
69	-9.89562
较为	-9.89673
诉讼	-9.89705
江西	-9.89726
中小	-9.89819
结婚	-9.89921
凭借	-9.89933
08	-9.89939
未能	-9.89944
完美	-9.89953
的事情	-9.89969
幼	-9.89975
修改	-9.90024
89	-9.90029
峰会	-9.90096
药物	-9.901
com	-9.90119
清楚	-9.90149
东莞	-9.90164
纳入	-9.90323
贫困	-9.90328
利亚	-9.90369
依据	-9.90399
拨	-9.90423
准确	-9.90453
新华社	-9.90463
城管	-9.90484
担忧	-9.90492
呈	-9.90501
一是	-9.90513
菌	-9.9053
▁东方网	-9.90559
陕西	-9.90568
。”“	-9.90569
没想到	-9.90576
条例	-9.9058
相关部门	-9.90594
统	-9.90614
惨	-9.90694
甘肃	-9.90721
62	-9.90766
投诉	-9.90771
促	-9.90774
转变	-9.90822
回来	-9.90849
预防	-9.90871
恰	-9.90876
蛟龙	-9.90886
荷	-9.90892
须	-9.90898
洪水	-9.90906
东部	-9.91016
各国	-9.91023
时报	-9.9103
促销	-9.91052
则是	-9.91071
抛	-9.91099
掌	-9.911
那个	-9.91121
无人	-9.91159
记者张	-9.91169
停止	-9.9118
抓获	-9.9118
廉	-9.91252
葡萄牙	-9.91254
加速	-9.91265
篇	-9.91296
首个	-9.91308
脏	-9.91331
发起	-9.91363
范围内	-9.91434
拥	-9.91506
身边	-9.91629
幼儿园	-9.91674
一片	-9.91721
都要	-9.9177
尽快	-9.91788
一步	-9.91791
主场	-9.91813
更为	-9.91865
荷兰	-9.91867
更大	-9.91873
韦	-9.91876
局面	-9.91882
成熟	-9.9193
唯	-9.91953
泥	-9.91963
梦想	-9.91968
爱情	-9.91997
有点	-9.92028
的比赛	-9.92033
姚	-9.92035
辛	-9.92049
份额	-9.92052
大奖	-9.92062
完整	-9.92063
当年	-9.9208
漏	-9.92091
滚	-9.92095
变得	-9.92096
寺	-9.92102
探索	-9.92112
早上	-9.92143
几年	-9.92144
品质	-9.92163
带动	-9.92209
拜	-9.92257
犯罪嫌疑人	-9.92297
产量	-9.92325
经典	-9.9235
乐观	-9.92367
两位	-9.92368
赤	-9.92446
矛盾	-9.92468
空气	-9.92508
本月	-9.92576
开工	-9.92594
51	-9.926
本报记者	-9.92605
鑫	-9.92678
父	-9.9269
凌晨	-9.92747
德罗巴	-9.92843
79	-9.92859
寒	-9.92867
悦	-9.92879
41	-9.92918
内蒙古	-9.92939
坦	-9.92976
东京	-9.93032
淘汰	-9.93036
30%	-9.93044
肝	-9.93047
摘	-9.93114
访问	-9.93127
大道	-9.93204
猫	-9.93211
5%。	-9.93242
马上	-9.93248
一款	-9.93251
竟然	-9.9329
堡	-9.93295
移民	-9.9331
这名	-9.93328
啤酒	-9.93339
下的	-9.93342
财产	-9.93363
宁波	-9.93363
新型	-9.93417
混	-9.93437
炸	-9.93446
以色列	-9.93478
角色	-9.93515
3%,	-9.93538
草案	-9.93539
玲	-9.93616
该公司	-9.9363
挑	-9.93712
西安	-9.93815
。2011	-9.93816
内的	-9.93818
事实上	-9.93832
实践	-9.93901
年初	-9.93944
道德	-9.93959
物流	-9.94084
邦	-9.94161
亏损	-9.94243
格局	-9.94361
人生	-9.94394
之下	-9.94401
积水	-9.94403
各方	-9.94422
第五	-9.94462
赌	-9.94479
各级	-9.94487
醉	-9.94499
前景	-9.94568
上班	-9.94575
恒大	-9.94584
走访	-9.94603
伦敦奥运	-9.94613
柔	-9.94674
条款	-9.94688
公平	-9.94732
84	-9.94764
接待	-9.94827
生意	-9.94839
曝	-9.94869
桶	-9.9487
银行业	-9.94879
邀	-9.94899
货车	-9.94932
很多人	-9.94975
财政部	-9.94982
就要	-9.95022
端午	-9.95062
旋	-9.95085
姐	-9.95103
全年	-9.95198
主办	-9.95248
页	-9.95265
号码	-9.9537
外汇	-9.95382
水泥	-9.95383
一线	-9.95402
世界杯	-9.95402
还会	-9.95453
踢	-9.95489
枚	-9.95491
2006	-9.95498
一定要	-9.95647
大陆	-9.95746
大雨	-9.95748
ST	-9.95832
67	-9.9585
亏	-9.95864
裙	-9.95927
的要求	-9.96001
x	-9.96065
做了	-9.96082
男孩	-9.96093
三峡	-9.96178
清理	-9.96214
周末	-9.96332
已被	-9.96416
鸿	-9.96449
提交	-9.96452
一段	-9.96457
境内	-9.96462
拔	-9.96478
戈	-9.96484
对接	-9.96509
旭	-9.96524
南宁	-9.96525
占比	-9.96567
背后	-9.96607
电器	-9.9668
凭	-9.96693
聘	-9.96701
塌	-9.96721
1%,	-9.96753
男性	-9.96764
这也是	-9.96858
逾	-9.96945
优质	-9.97002
彩票	-9.97019
低迷	-9.97101
粮	-9.97101
懂	-9.97104
的表现	-9.97114
融	-9.97148
革命	-9.97148
挤	-9.97151
扑	-9.97155
带领	-9.97337
增幅	-9.97354
吹	-9.97368
举报	-9.97414
影片	-9.97428
现有	-9.97441
夏天	-9.97463
63	-9.97468
旗下	-9.97511
发动机	-9.97545
2013	-9.97551
看着	-9.97572
人类	-9.97639
侦	-9.97728
财务	-9.97789
效率	-9.97804
06	-9.97809
不够	-9.97864
搜索	-9.97921
以下简称	-9.9798
奶	-9.98153
暑假	-9.98159
在于	-9.98162
孩子们	-9.98284
园区	-9.98398
棋	-9.98404
前期	-9.9849
肯	-9.98495
院校	-9.98503
递	-9.98541
询问	-9.98561
以往	-9.98594
将其	-9.98696
驱	-9.98766
装修	-9.98779
掌握	-9.98789
曹	-9.98806
汪	-9.98831
粒	-9.98844
凤	-9.98848
植	-9.9894
泳	-9.98983
有一个	-9.99002
心里	-9.99049
拆	-9.99081
深化	-9.99099
一方面	-9.99112
首发	-9.99115
长春	-9.99167
敢	-9.99239
琴	-9.99246
砖	-9.99261
审核	-9.99275
固定	-9.99289
句	-9.99335
魏	-9.994
出现在	-9.99412
困	-9.99426
涂	-9.99466
物价	-9.99466
6%,	-9.99484
一件	-9.99517
每次	-9.99567
91	-9.99568
年轻人	-9.99597
慈善	-9.99644
判断	-9.99655
整合	-9.99722
92	-9.99749
认定	-9.9977
信托	-9.99813
但在	-9.99835
插	-9.99862
昨晚	-9.99907
灰	-9.99915
能否	-9.99985
2%,	-10.0001
有限	-10.0001
至于	-10.0004
蒋	-10.0011
审议	-10.0013
回答	-10.0014
总是	-10.0016
家中	-10.0019
期限	-10.002
le	-10.0024
家具	-10.0027
的第一	-10.0028
呼吁	-10.003
蜂	-10.0033
水果	-10.0034
记者李	-10.0034
议员	-10.0035
在线	-10.004
名为	-10.0048
电信	-10.0052
激烈	-10.0053
增加了	-10.0069
帖	-10.0071
磨	-10.0073
泄	-10.0073
分配	-10.0079
染	-10.0085
同事	-10.0087
股指	-10.0088
批发	-10.0091
刑事	-10.0093
陷入	-10.0104
千万	-10.0109
当中	-10.0109
站在	-10.011
在接受	-10.0111
秦	-10.0113
扭	-10.0114
喷	-10.0117
破坏	-10.0122
权利	-10.0123
遍	-10.0134
显著	-10.0138
事务	-10.014
走出	-10.014
本身	-10.0141
翼	-10.0141
耀	-10.0146
回归	-10.0148
关注的	-10.0148
肠	-10.0163
水位	-10.0169
更好	-10.017
蒜	-10.0171
公布了	-10.0181
裸	-10.0183
徒	-10.0183
遥	-10.0183
陪	-10.0194
暂时	-10.0199
返回	-10.02
出去	-10.02
取得了	-10.0201
劝	-10.0202
退市	-10.0202
上下	-10.0204
相互	-10.0207
是为了	-10.0218
帝	-10.0222
还没有	-10.0223
胆	-10.0228
并不是	-10.0229
原油	-10.023
r	-10.023
一季度	-10.0232
日常	-10.0233
镜	-10.0237
吉林	-10.0242
利好	-10.0244
各大	-10.0244
吊	-10.0245
莉	-10.0247
赏	-10.0248
悲	-10.0251
释放	-10.0252
贾	-10.0252
接触	-10.0256
你的	-10.0257
奖金	-10.0262
小孩	-10.0265
空军	-10.0272
手续	-10.0274
第一个	-10.0278
战胜	-10.0283
标志	-10.0284
快乐	-10.0285
放缓	-10.0289
保安	-10.0293
出行	-10.0294
太阳	-10.0294
平衡	-10.0305
证据	-10.0308
发改委	-10.0311
市委	-10.0312
夫妻	-10.0312
神舟九号	-10.0313
的事	-10.0315
终端	-10.0335
楼盘	-10.0336
督	-10.0336
一部分	-10.0338
外交	-10.0338
人体	-10.0339
代理	-10.0341
率先	-10.0343
电池	-10.0351
逆	-10.0352
2%。	-10.0355
毅	-10.0355
车上	-10.0356
擦	-10.0359
坑	-10.0361
权益	-10.0361
货币政策	-10.0363
82	-10.0373
不敢	-10.0373
磊	-10.0374
无疑	-10.0374
总量	-10.0374
与此同时	-10.0377
英镑	-10.0378
纠纷	-10.0381
验	-10.0382
群体	-10.0383
4%,	-10.0383
出色	-10.0385
乎	-10.0394
西藏	-10.0401
耶	-10.0404
孤	-10.0405
民主党	-10.0407
订单	-10.041
的机会	-10.0414
7000	-10.0416
乡镇	-10.0417
Y	-10.0417
各个	-10.0418
晋级	-10.0427
校长	-10.0427
柏	-10.0428
电站	-10.0438
8%,	-10.0444
_	-10.0449
区间	-10.0451
肌肤	-10.0452
46	-10.0454
细节	-10.0456
岳	-10.0467
化学	-10.0469
05	-10.0471
不知	-10.048
失去	-10.0481
子女	-10.0488
莎	-10.0489
涌	-10.049
法庭	-10.0494
al	-10.0495
察	-10.0495
侠	-10.051
养殖	-10.0512
得到了	-10.0515
在这里	-10.0515
展现	-10.0516
另一方面	-10.0517
不得不	-10.0519
下去	-10.052
最为	-10.0527
出发	-10.0529
爆发	-10.0535
氏	-10.0536
开车	-10.0538
中超	-10.0539
互动	-10.055
拒	-10.0556
爸爸	-10.0558
裤	-10.056
舱	-10.0561
庆祝	-10.0562
一大	-10.0567
契	-10.058
踏	-10.0583
检验	-10.0584
都没有	-10.0585
构成	-10.0587
见到	-10.0588
传播	-10.0589
高速公路	-10.059
排水	-10.0592
黎	-10.0598
创作	-10.06
定期	-10.0602
莲	-10.0604
团体	-10.0605
隐患	-10.0607
追求	-10.0607
海上	-10.0609
支队	-10.0616
年以来	-10.0616
观看	-10.0622
爽	-10.0624
不管	-10.0626
宿	-10.0626
艇	-10.0626
怎样	-10.0627
鸣	-10.0628
中山	-10.063
一半	-10.0631
端午节	-10.0631
看看	-10.0631
的作用	-10.0631
性能	-10.0636
局部	-10.0636
可能是	-10.0637
决策	-10.065
气温	-10.0652
外交部	-10.0653
选拔	-10.0656
否认	-10.0658
本报讯	-10.066
让他	-10.0661
览	-10.0661
一路	-10.0672
添	-10.0687
少数	-10.0691
下了	-10.0692
商场	-10.0692
吓	-10.0693
厦门	-10.0695
休闲	-10.0696
有利于	-10.0697
予以	-10.0705
优化	-10.0708
董事会	-10.0712
3%。	-10.0715
屡	-10.0716
Q	-10.0716
紫	-10.0717
大多数	-10.0718
院长	-10.0719
这款	-10.0732
94	-10.0734
中国经济	-10.0741
吐	-10.0741
拦	-10.0741
孟	-10.0744
也许	-10.0745
通讯	-10.0745
超级	-10.0749
打算	-10.0751
读者	-10.076
让我	-10.076
眼睛	-10.0762
举措	-10.0764
兴奋	-10.0766
异常	-10.0771
破门	-10.0777
刘洋	-10.0779
实在	-10.078
海关	-10.0782
▁美国	-10.0782
轰	-10.0788
吕	-10.0788
奶粉	-10.0788
陶	-10.0789
大连	-10.0797
估	-10.0808
伪	-10.0809
盒	-10.081
敲	-10.081
上网	-10.081
无奈	-10.0811
明年	-10.0813
谈判	-10.0814
眉	-10.0815
万辆	-10.0823
流量	-10.0823
报价	-10.0824
绕	-10.0832
4%。	-10.0841
阅读	-10.0842
尤	-10.0848
报纸	-10.0849
的产品	-10.085
主帅	-10.085
领导人	-10.0852
距	-10.0855
滞	-10.086
姓	-10.0861
700	-10.0868
税收	-10.0868
社会保障	-10.0873
赚	-10.0873
地方政府	-10.0874
CPI	-10.0878
1%。	-10.0882
违反	-10.0882
经销商	-10.0882
南方	-10.0889
09	-10.0891
64	-10.0892
市场上	-10.0892
评级	-10.0898
谭	-10.0898
回忆	-10.0902
貌	-10.0903
斯特	-10.0907
学位	-10.0914
舞台	-10.0917
每一个	-10.0918
基准利率	-10.0923
俩	-10.0926
产能	-10.0935
美女	-10.0936
全体	-10.0936
民主	-10.0944
水库	-10.0944
看好	-10.0947
颗	-10.0952
乘坐	-10.0953
招聘	-10.0955
定位	-10.0956
路边	-10.0962
汇报	-10.0962
党委	-10.0964
认可	-10.0965
售价	-10.0969
坐在	-10.0969
到达	-10.097
太多	-10.097
个别	-10.0974
依旧	-10.0974
尊重	-10.0978
短信	-10.0979
热线	-10.0981
波动	-10.0985
打破	-10.0987
原本	-10.0988
奋	-10.0994
110	-10.0995
欧债危机	-10.0996
纹	-10.0996
贺	-10.1
蛋	-10.1001
开盘	-10.1001
凌	-10.1002
话题	-10.1011
关心	-10.1014
开通	-10.1018
锅	-10.1019
阿富汗	-10.1023
几十	-10.1025
合格	-10.1036
昂	-10.1041
粗	-10.1044
庞	-10.1045
慧	-10.1047
青少年	-10.105
估计	-10.1057
市公安局	-10.1057
熊	-10.1065
阶	-10.1066
捧	-10.1066
罐	-10.1072
首席	-10.1077
高兴	-10.1084
渡	-10.1085
美联储	-10.109
戒	-10.1095
之中	-10.1095
离婚	-10.1098
仍在	-10.1102
附近的	-10.1113
赶到	-10.1118
参考	-10.1122
落后	-10.1122
篮球	-10.1123
委托	-10.1126
团伙	-10.1127
家属	-10.113
本人	-10.1132
他还	-10.1132
般	-10.1133
舒	-10.1136
并在	-10.1138
立方米	-10.114
屏幕	-10.1141
枝	-10.1142
顾客	-10.1145
难度	-10.1152
这场	-10.1162
新兴	-10.1163
判决	-10.1164
交易所	-10.1165
么	-10.1167
击败	-10.1168
市长	-10.1171
英语	-10.1171
经费	-10.1173
河北	-10.1174
人均	-10.1183
的行为	-10.1184
钻	-10.1185
牢	-10.1186
争取	-10.1189
发电	-10.1191
中方	-10.1191
的城市	-10.1192
发布会	-10.1193
打电话	-10.1196
会员	-10.1199
婚姻	-10.1207
犹	-10.1208
第一时间	-10.1208
东南	-10.121
芬	-10.1211
由此	-10.1211
同比下降	-10.1213
工地	-10.1216
幻	-10.1217
前来	-10.1219
无论是	-10.122
省委	-10.1221
北京奥运会	-10.1224
淘宝	-10.1226
同时也	-10.1226
坪	-10.1231
饱	-10.1235
总部	-10.1243
越来越多	-10.1247
仍有	-10.1251
用地	-10.1256
妈	-10.1257
72	-10.1259
梯	-10.126
笔者	-10.126
在今年	-10.1268
点球	-10.127
机动车	-10.1271
降水	-10.1276
都能	-10.1286
同志	-10.1287
挖	-10.1287
刘翔	-10.1288
搜狐体育	-10.1294
达到了	-10.1303
83	-10.1307
企业的	-10.1315
感动	-10.1318
就像	-10.1326
不住	-10.133
局局长	-10.1333
兹	-10.1334
仅有	-10.1341
感情	-10.1342
李娜	-10.1345
滩	-10.1356
差距	-10.1359
世锦赛	-10.1359
坠	-10.136
淮	-10.1366
总决赛	-10.1378
分为	-10.1381
补充	-10.1384
打工	-10.1386
著	-10.1394
提出了	-10.1394
埋	-10.1404
蓄	-10.1406
涵	-10.1407
年期	-10.1412
盟	-10.1413
金融机构	-10.1422
的成绩	-10.1422
工艺	-10.1423
效应	-10.1427
瘦	-10.143
抚	-10.1431
60%	-10.1432
攻击	-10.1434
防汛	-10.1435
基础设施	-10.1436
通行	-10.1444
这也	-10.1444
四个	-10.1454
80%	-10.1456
偿	-10.1457
活跃	-10.1459
相同	-10.1461
斑	-10.1461
独特	-10.1463
房产	-10.1467
爬	-10.1476
叹	-10.148
绳	-10.1482
胎	-10.1482
棚	-10.1482
饮料	-10.1482
闷	-10.1482
负担	-10.1483
试图	-10.1494
实现了	-10.1507
履行	-10.1511
2005	-10.1525
疯狂	-10.1532
03	-10.1534
肩	-10.1536
一套	-10.1543
构	-10.1549
绑	-10.155
延长	-10.1552
元素	-10.1555
进步	-10.1558
晴	-10.1559
参观	-10.1563
理想	-10.1564
收取	-10.1572
事项	-10.1597
纠	-10.1602
本市	-10.1603
局势	-10.1603
稳增长	-10.1608
这项	-10.1608
境外	-10.1609
估值	-10.1612
外界	-10.1613
两市	-10.1614
养老保险	-10.1614
闭	-10.1623
给了	-10.1624
女友	-10.1625
医保	-10.1625
崔	-10.1631
凶	-10.1632
一个人	-10.1635
记者刘	-10.1638
也可以	-10.1639
保健	-10.164
共计	-10.1643
还能	-10.1644
介绍说	-10.1647
兰州	-10.1648
小组赛	-10.1651
究竟	-10.1654
许可	-10.1655
医学	-10.1666
仙	-10.1667
皇马	-10.1669
6000	-10.167
袁	-10.1681
钢铁	-10.1682
巴黎	-10.1684
失业	-10.1684
米兰	-10.1689
大使	-10.169
职务	-10.1694
万股	-10.1696
不满	-10.17
茂	-10.1705
萍	-10.1706
主权	-10.1707
疗	-10.1709
卫视	-10.1717
私募	-10.1727
总数	-10.1729
首批	-10.1729
弄	-10.1729
面前	-10.1731
印象	-10.1732
渐	-10.1733
李某	-10.1735
更有	-10.1735
人受伤	-10.1736
颈	-10.1737
背景下	-10.1744
晋	-10.1748
农产品	-10.175
释	-10.1751
携	-10.1755
兄弟	-10.1756
脉	-10.1761
管理局	-10.1762
批评	-10.1766
难题	-10.1766
三星	-10.1773
诸多	-10.1774
省政府	-10.1776
夺得	-10.1778
乏	-10.178
iPhone	-10.1781
王某	-10.1783
发布了	-10.1786
一段时间	-10.1788
队长	-10.1788
不可能	-10.1792
即可	-10.1792
正确	-10.1794
的历史	-10.1803
将继续	-10.1804
扶	-10.1805
坝	-10.1811
平稳	-10.1827
进程	-10.1831
稀	-10.1831
辩	-10.1833
开启	-10.1835
为期	-10.1835
绿化	-10.1843
美丽	-10.1845
炒	-10.1851
观点	-10.1857
试用	-10.1866
军方	-10.1868
拿出	-10.1869
更高	-10.1879
混合	-10.1889
是什么	-10.1889
温度	-10.189
家住	-10.1892
出售	-10.1894
西方	-10.1897
开出	-10.1897
裁判	-10.1898
球场	-10.1899
张某	-10.1902
伤害	-10.1903
那样	-10.1904
▁2012	-10.191
巷	-10.1913
贤	-10.1914
也没	-10.1914
权力	-10.1918
提示	-10.1923
强制	-10.1923
青海	-10.1924
优先	-10.1925
一只	-10.1926
揽	-10.1936
棉	-10.1938
查询	-10.1939
火炬	-10.1941
中介	-10.1944
本地	-10.1958
捐款	-10.1963
粤	-10.1964
类型	-10.1965
仿	-10.1965
国民	-10.1966
盆	-10.1968
四大	-10.1969
杂志	-10.1969
配备	-10.1969
也要	-10.1971
其余	-10.1975
素质	-10.1976
获得了	-10.1978
深圳市	-10.1981
鼻	-10.1985
华人	-10.1985
中考	-10.1985
坤	-10.1991
美食	-10.1993
国家队	-10.2014
囊	-10.2015
滋	-10.2015
腹	-10.2016
慎	-10.2017
总结	-10.202
文学	-10.2028
本来	-10.2028
周围	-10.2034
胃	-10.2041
补偿	-10.2043
把握	-10.2044
87	-10.2045
租房	-10.2047
深刻	-10.2048
新低	-10.2056
硕	-10.2067
财经	-10.2069
失踪	-10.2071
反而	-10.2083
外援	-10.2084
感染	-10.2087
授	-10.2092
扇	-10.2093
不用	-10.2094
十几	-10.2094
小幅	-10.2095
巴萨	-10.2108
挥	-10.2109
忽	-10.2113
被困	-10.2117
衰	-10.2119
募集	-10.2121
冻	-10.2121
很少	-10.2121
墨	-10.2121
砍	-10.2122
购房	-10.2126
际	-10.2128
密切	-10.213
怒	-10.2146
占据	-10.2147
通常	-10.2148
8%。	-10.2148
宽松	-10.2148
考验	-10.2149
的可能性	-10.2149
劫	-10.215
墨西哥	-10.2152
搜	-10.217
物品	-10.217
疾	-10.2172
成分	-10.2173
逢	-10.2173
逸	-10.2174
国产	-10.218
东北	-10.2184
不起	-10.2187
仅为	-10.2189
有力	-10.2192
向记者	-10.2192
81	-10.2196
送到	-10.2199
联邦	-10.2205
尝试	-10.2207
合肥	-10.2209
专题	-10.2209
五年	-10.221
蚊	-10.2211
协助	-10.2212
研究中心	-10.2214
想要	-10.2215
高层	-10.2217
一部	-10.2226
晒	-10.2227
排除	-10.2232
注重	-10.2235
手中	-10.224
水利	-10.2245
强降雨	-10.2248
我就	-10.2253
循环	-10.2254
飘	-10.2255
座谈会	-10.2255
冕	-10.2257
历史上	-10.226
两大	-10.2262
三角	-10.2264
少年	-10.2265
对话	-10.2266
聊	-10.2268
进攻	-10.2268
基金公司	-10.227
届时	-10.227
仔	-10.228
阁	-10.2283
起诉	-10.2285
在全国	-10.2288
之所以	-10.23
国安	-10.2303
修订	-10.2305
遗憾	-10.2305
诈骗	-10.2306
智能手机	-10.2315
批次	-10.2315
走了	-10.2319
解放	-10.2319
涉案	-10.2321
新能源	-10.2322
是不是	-10.2323
亮点	-10.2327
外资	-10.2335
伙伴	-10.2337
激动	-10.2352
良好的	-10.2357
郁	-10.236
竞争力	-10.2362
彻底	-10.2362
王先生	-10.2364
it	-10.2373
教学	-10.2383
阅	-10.2383
玉米	-10.2385
意思	-10.2391
海峡	-10.2393
担	-10.24
查处	-10.24
审查	-10.2401
告知	-10.2402
不但	-10.2403
成就	-10.2409
亡	-10.241
EC	-10.2413
旦	-10.2413
躲	-10.2416
昨天上午	-10.2423
科研	-10.2425
赛后	-10.2427
一把	-10.2436
捞	-10.2438
IPO	-10.244
荡	-10.2441
邻	-10.2442
荣誉	-10.2444
直升机	-10.2446
他表示	-10.2447
战斗	-10.2454
本公司	-10.2456
新建	-10.2457
辞	-10.246
册	-10.2465
门票	-10.2467
哪些	-10.2467
博物馆	-10.247
淹	-10.2472
墓	-10.2474
的确	-10.2476
含有	-10.2479
拨打	-10.2482
申报	-10.2487
锐	-10.2493
编辑	-10.2496
溢	-10.2498
招商	-10.2498
缝	-10.2498
怀疑	-10.25
禁区	-10.2503
罚款	-10.2504
媒	-10.2505
蓝色	-10.2505
龙头	-10.2507
效益	-10.2509
股市场	-10.2513
级别	-10.2515
火灾	-10.2522
到位	-10.2523
房间	-10.2523
糊	-10.2524
可见	-10.2527
一行	-10.2532
研究所	-10.2532
传媒	-10.2535
阵容	-10.254
对阵	-10.2543
嫌疑人	-10.2548
收获	-10.255
讲述	-10.2554
伸	-10.2554
抬	-10.2555
不愿	-10.2555
了很多	-10.256
名称	-10.256
诸	-10.2562
原料	-10.2568
才是	-10.257
扬州	-10.2579
娘	-10.2581
越南	-10.2583
污水	-10.259
省级	-10.2599
将成为	-10.2606
2015	-10.2607
简称	-10.2608
骂	-10.2608
可谓	-10.2609
财富	-10.2614
波兰	-10.262
咬	-10.2632
厘米	-10.2636
降至	-10.2637
姿	-10.2637
拓展	-10.2639
结算	-10.2642
不太	-10.2643
学会	-10.2647
先生说	-10.2648
成效	-10.2649
大规模	-10.2651
污	-10.2655
炼	-10.266
随即	-10.2664
昨天下午	-10.2671
太原	-10.2672
窗口	-10.2672
防范	-10.2673
想到	-10.2685
穆尔西	-10.2688
足协	-10.2689
串	-10.2693
孕	-10.2693
当晚	-10.2696
日益	-10.2704
白色	-10.2707
创意	-10.2715
大桥	-10.2715
会见	-10.2715
乌克兰	-10.2716
暴力	-10.2717
扶持	-10.2721
限购	-10.2728
语言	-10.2731
记者了解到	-10.2731
不利	-10.2741
环球	-10.2742
扰	-10.2744
涨价	-10.2745
el	-10.2746
绘	-10.2747
15%	-10.2753
接下来	-10.2764
客车	-10.2775
Z	-10.2776
厂商	-10.2777
赶紧	-10.2779
坚决	-10.278
早在	-10.2781
旅行社	-10.2782
义务	-10.2784
轨道	-10.2785
路面	-10.2785
便宜	-10.2786
布局	-10.2787
产业发展	-10.279
抓住	-10.2792
画面	-10.2793
立法	-10.2796
暖	-10.2799
心情	-10.2802
兴趣	-10.2802
闯	-10.2802
法案	-10.2806
流行	-10.2817
商务部	-10.2822
大战	-10.2822
客场	-10.2826
厨	-10.2827
不想	-10.2829
疏	-10.283
朵	-10.283
大街	-10.2831
最好的	-10.2831
慌	-10.2832
烤	-10.2837
地球	-10.2839
即便	-10.2839
防守	-10.2844
利息	-10.2846
巨大的	-10.2852
6%。	-10.2854
娟	-10.2857
回收	-10.2857
窄	-10.2862
回报	-10.2863
对其	-10.2869
救灾	-10.2873
气候	-10.2875
老年人	-10.2876
室内	-10.2877
国会	-10.2879
早已	-10.2882
农民工	-10.2887
辈	-10.2887
阔	-10.2888
展览	-10.2903
晨报	-10.2906
姑娘	-10.2908
9%。	-10.2912
酒精	-10.2913
哪里	-10.2915
爷	-10.2916
回暖	-10.2919
董事	-10.2926
网民	-10.2937
随时	-10.2941
酿	-10.2943
窝	-10.2946
盼	-10.2946
储备	-10.2948
7%。	-10.2949
差异	-10.2951
搭配	-10.2951
中新网	-10.296
运作	-10.2963
买入	-10.2965
决议	-10.2972
择	-10.2974
琼	-10.2976
毕竟	-10.2976
NBA	-10.2977
昨	-10.2977
亿欧元	-10.2977
的基础上	-10.298
结束后	-10.2986
孙杨	-10.2991
备战	-10.2993
尊	-10.2997
流动性	-10.2998
考虑到	-10.2999
塑	-10.3
哲	-10.3004
但他	-10.3006
照顾	-10.3007
资本市场	-10.3009
旁边	-10.3014
技能	-10.3022
不见	-10.3025
1500	-10.3029
化工	-10.3031
割	-10.3032
碑	-10.3034
帽	-10.3035
担保	-10.3036
其次	-10.3037
福州	-10.3038
协商	-10.3042
乌鲁木齐	-10.3043
激情	-10.3048
她说	-10.3049
也很	-10.3051
带来了	-10.3055
撒	-10.3058
潭	-10.3059
足够	-10.3061
在网上	-10.3064
0%	-10.3065
轩	-10.3067
受益	-10.3073
用品	-10.3087
林书豪	-10.309
危害	-10.3094
宴	-10.3094
强势	-10.3095
道歉	-10.3111
分享	-10.3111
伞	-10.3122
这家	-10.3122
否则	-10.3125
专用	-10.3127
ic	-10.313
四年	-10.3135
创下	-10.3135
摔	-10.3144
健身	-10.3147
一道	-10.3147
体操	-10.3148
拉斯	-10.3149
基于	-10.315
晕	-10.315
症状	-10.3151
副书记	-10.3157
鉴定	-10.3157
补助	-10.3162
吻	-10.3171
策	-10.3172
队友	-10.3175
障碍	-10.3176
赖	-10.318
烂	-10.318
发生了	-10.3183
复苏	-10.3188
月以来	-10.3196
还没	-10.3199
万平方米	-10.32
z	-10.3205
细胞	-10.3207
灌	-10.3208
存款利率	-10.3208
这份	-10.3211
部分地区	-10.3211
之际	-10.3218
指控	-10.3229
民间资本	-10.3231
粮食	-10.3233
谱	-10.3235
本科	-10.3237
不良	-10.3239
表决	-10.3247
人民法院	-10.3248
当场	-10.3253
屈	-10.3265
荒	-10.3265
有很多	-10.3267
瞬间	-10.3268
臂	-10.3271
st	-10.3271
合法	-10.3276
长时间	-10.3276
事业单位	-10.3277
100%	-10.328
分公司	-10.3281
听取	-10.3285
备受	-10.3286
阵雨	-10.3287
猜	-10.3292
摩托车	-10.3292
革	-10.3295
也能	-10.3296
尘	-10.3299
商业银行	-10.3315
走向	-10.3315
那里	-10.3317
新闻网	-10.3317
烦	-10.3321
虹	-10.3322
交会对接	-10.3322
参加了	-10.3326
浙江省	-10.3326
辣	-10.3326
诺基亚	-10.333
iPad	-10.3346
微软	-10.3347
裕	-10.3351
邹	-10.3352
调解	-10.3353
拉开	-10.3353
颜	-10.3353
欺	-10.3356
辞职	-10.336
审理	-10.3361
情感	-10.3367
盈	-10.3376
市值	-10.3376
主角	-10.3378
植物	-10.3381
适当	-10.3382
兆	-10.3383
谨慎	-10.3384
一座	-10.3384
详	-10.3386
芝	-10.3387
敦	-10.3387
寻求	-10.339
情况下	-10.34
IC	-10.3402
起到	-10.3409
迹象	-10.3414
役	-10.3416
遮	-10.3417
鹿	-10.3418
驾车	-10.3421
旨在	-10.3422
温网	-10.3423
夫妇	-10.3424
此后	-10.343
三名	-10.3439
垫	-10.3446
漂	-10.3446
廊	-10.3447
贯	-10.3448
颜色	-10.345
完成了	-10.3451
典型	-10.3455
过度	-10.3456
永远	-10.3461
山东省	-10.3462
报道称	-10.3463
原因是	-10.3465
旱	-10.3466
心态	-10.347
躺	-10.3476
崇	-10.3476
催	-10.3476
舞蹈	-10.3477
锡	-10.3478
予	-10.3479
欧洲央行	-10.348
法规	-10.3483
莹	-10.3485
吸收	-10.3493
点评	-10.3495
4000	-10.3496
真是	-10.3496
弟	-10.3503
仔细	-10.3506
郊	-10.3506
截止	-10.351
便利	-10.3512
毫无	-10.3514
一级	-10.3517
学员	-10.3523
想象	-10.3524
均价	-10.3531
一支	-10.3534
公务	-10.3534
可持续发展	-10.3537
廖	-10.3539
寨	-10.3543
演习	-10.3548
突发	-10.3558
第二次	-10.3567
浴	-10.3567
慕	-10.3568
无线	-10.3569
较多	-10.3569
天然气	-10.3569
疼	-10.3569
错误	-10.357
亭	-10.3571
公安机关	-10.3572
2004	-10.3577
提起	-10.3579
鹰	-10.358
森林	-10.3585
安置	-10.3587
昆	-10.3591
逊	-10.3597
熟悉	-10.3598
丧	-10.3598
途径	-10.3599
塑料	-10.3601
公务员	-10.3604
管道	-10.3604
制裁	-10.3605
周四	-10.3607
在京	-10.3608
血液	-10.3609
驾驶员	-10.3612
清洁	-10.3615
老公	-10.3621
空中	-10.3623
福利	-10.3624
TV	-10.3624
流程	-10.3627
仲	-10.3629
魅力	-10.3629
肤	-10.3631
智慧	-10.3632
婴儿	-10.3643
分红	-10.3649
文艺	-10.3649
鼎	-10.3658
造型	-10.3658
楚	-10.3658
诱	-10.3661
朴	-10.3661
盲	-10.3663
依靠	-10.3665
传递	-10.3667
美军	-10.3668
季节	-10.3671
打出	-10.3677
东风	-10.3683
泛	-10.3685
清晰	-10.369
两种	-10.369
愈	-10.3692
外观	-10.3692
机组	-10.3693
纲	-10.3693
反对派	-10.3696
我觉得	-10.3698
饮食	-10.3698
前锋	-10.3699
更换	-10.3702
自我	-10.3706
总局	-10.3706
主导	-10.3706
at	-10.3708
万亩	-10.3708
驶	-10.3711
翔	-10.3717
蕾	-10.372
等问题	-10.3722
高度重视	-10.3723
俞	-10.3724
沪深	-10.3724
极大	-10.3725
罗姆尼	-10.3725
听说	-10.3727
团购	-10.3728
提到	-10.3728
乙	-10.3728
超标	-10.3738
二十	-10.3741
曼联	-10.3744
数十	-10.3752
吸引了	-10.3752
弯	-10.3755
天然	-10.3757
认证	-10.3758
战争	-10.3763
法官	-10.3764
副主席	-10.3768
疆	-10.3771
住院	-10.3774
反复	-10.3775
厂家	-10.3776
克斯	-10.3779
代码	-10.378
花园	-10.3788
转会	-10.3788
不如	-10.3791
官兵	-10.3791
锁定	-10.3807
整理	-10.3808
葛	-10.3813
新加坡	-10.3815
成品油	-10.3816
巴洛特利	-10.3818
吃饭	-10.3823
业内	-10.3825
额度	-10.3827
思考	-10.3831
适用	-10.3836
组建	-10.3843
均为	-10.3844
相当于	-10.3844
挫	-10.3846
故障	-10.3847
舆论	-10.3848
理科	-10.3848
龙舟	-10.3849
瑞士	-10.3853
着力	-10.3862
这条	-10.3863
全场	-10.3865
公车	-10.3872
翰	-10.3873
邻居	-10.3879
肺	-10.3879
神秘	-10.388
卧	-10.3882
AC	-10.3886
炒作	-10.3887
损害	-10.3891
据报道	-10.3892
思路	-10.3893
热火	-10.3896
面向	-10.3901
鲁能	-10.3908
通胀	-10.3909
分局	-10.391
受理	-10.3922
青春	-10.3923
明天	-10.3924
西北	-10.3926
河南省	-10.3932
男女	-10.3935
镜头	-10.3937
尽量	-10.394
添加	-10.3941
▁新华社	-10.3941
腐	-10.3943
女排	-10.3947
融合	-10.3955
给他	-10.3958
掩	-10.3971
2014	-10.3971
滴	-10.3971
但由于	-10.3973
开发区	-10.3973
狼	-10.3974
斯坦	-10.3975
层面	-10.3975
各自	-10.3979
人民政府	-10.398
机遇	-10.3982
重组	-10.3992
分行	-10.3993
电商	-10.4003
供电	-10.4004
挪	-10.4007
英超	-10.4008
新一轮	-10.401
大暴雨	-10.4024
较低	-10.4025
新华社记者	-10.4026
超越	-10.4027
出场	-10.4029
最美	-10.4031
锻炼	-10.4033
碍	-10.4035
银行卡	-10.4036
新闻发布会	-10.4039
大家都	-10.4039
经贸	-10.4041
两个月	-10.4041
顾问	-10.4042
征集	-10.4046
re	-10.4046
址	-10.4049
收藏	-10.4053
总监	-10.4059
裔	-10.4061
小型	-10.4074
餐厅	-10.4077
更新	-10.408
马路	-10.4083
筑	-10.4093
处置	-10.4095
物资	-10.4103
现状	-10.4103
贷款利率	-10.4106
地块	-10.4107
必然	-10.4109
分布	-10.4114
基金会	-10.4124
*	-10.413
詹姆斯	-10.413
穷	-10.4132
邵	-10.4139
腺	-10.4141
管理办法	-10.4142
航空公司	-10.4143
评选	-10.4145
射击	-10.4147
妹	-10.4152
装饰	-10.4154
我想	-10.4155
制品	-10.4161
飙	-10.4162
衔	-10.4162
侯	-10.4163
穿着	-10.4163
贯彻落实	-10.4167
萧	-10.417
团结	-10.417
看见	-10.417
嫌	-10.4176
主持人	-10.4178
开心	-10.4179
预报	-10.418
ro	-10.4181
减持	-10.4183
目前已	-10.4183
狠	-10.4196
后卫	-10.4196
悠	-10.42
西南	-10.4208
主教练	-10.4208
记者陈	-10.4209
电视剧	-10.421
不超过	-10.4214
否	-10.4219
年上半年	-10.4225
西甲	-10.4227
第六	-10.4228
闲	-10.4228
严峻	-10.4229
逆回购	-10.4229
窃	-10.4231
绍	-10.4235
人寿	-10.4238
运用	-10.4241
半决赛	-10.4242
减轻	-10.4243
介	-10.4245
其它	-10.4248
个交易日	-10.425
携带	-10.4252
职责	-10.426
——	-10.4262
警示	-10.4265
绵	-10.4265
故意	-10.4272
携手	-10.4276
解读	-10.4277
▁【	-10.4277
学者	-10.4281
背景	-10.4283
疑问	-10.4284
门槛	-10.4291
培	-10.4292
体制	-10.4297
对抗	-10.4299
捐赠	-10.43
余名	-10.4303
同步	-10.4308
热门	-10.4315
之路	-10.4315
不合格	-10.4318
信任	-10.4321
检察	-10.4326
撤	-10.4328
第七	-10.4329
派出	-10.433
港口	-10.433
椅	-10.4331
贪	-10.4332
例如	-10.4333
影响力	-10.4336
导弹	-10.4337
汽油	-10.4346
ETF	-10.4351
棒	-10.4358
勘	-10.4362
初中	-10.4368
共识	-10.4369
立刻	-10.4369
抗议	-10.4371
待遇	-10.4376
透明	-10.4378
券	-10.4381
博士	-10.4381
记者来到	-10.4386
电网	-10.4388
络	-10.4391
见面	-10.4392
庙	-10.4394
叔	-10.4395
持股	-10.4395
臣	-10.4397
大师	-10.4414
直播	-10.4415
负面	-10.4429
竞选	-10.4438
科学发展	-10.4442
门前	-10.4449
进出口	-10.4453
分别是	-10.4456
主演	-10.4459
壳	-10.4462
列入	-10.4469
警告	-10.447
央视	-10.4473
特征	-10.4475
高管	-10.4483
铝	-10.4483
下游	-10.4487
获取	-10.4488
已成为	-10.4497
鬼	-10.4497
东盟	-10.4499
推行	-10.45
爆料	-10.45
有一定	-10.4505
友好	-10.4509
生育	-10.451
药业	-10.4512
国防部	-10.4515
卫星	-10.4519
遣	-10.4521
缺口	-10.4521
彦	-10.453
耕	-10.4533
株	-10.4534
神经	-10.4535
台北	-10.4535
逆转	-10.4537
沪指	-10.4539
阿尔	-10.4541
公示	-10.4547
放心	-10.4551
艰	-10.4551
江苏省	-10.4553
万亿元	-10.4554
第二天	-10.4555
▁中新社	-10.4556
白天	-10.456
900	-10.4563
IP	-10.4567
合计	-10.4569
跌破	-10.4571
身亡	-10.4573
坦言	-10.4573
消除	-10.4576
入境	-10.4579
作战	-10.4581
ri	-10.4587
球星	-10.459
传奇	-10.4591
信息化	-10.4597
澄	-10.4601
亚太	-10.4601
活力	-10.4603
拆迁	-10.4603
昆明	-10.4606
专访	-10.4607
强劲	-10.4609
还可以	-10.4622
健全	-10.4624
主流	-10.4625
译	-10.4626
疲	-10.4627
友谊	-10.463
私人	-10.4633
关闭	-10.4637
总裁	-10.4641
首轮	-10.4645
生存	-10.4646
70%	-10.4646
卖出	-10.4648
细则	-10.4649
抢险	-10.4649
mm	-10.4651
房地产市场	-10.4655
搭载	-10.4665
创业板	-10.4669
高效	-10.4675
价格上涨	-10.4684
排队	-10.4684
色彩	-10.4685
生长	-10.4688
服务中心	-10.4691
病毒	-10.4691
身份证	-10.4695
碧	-10.4697
当事人	-10.4698
苑	-10.47
夹	-10.4701
保障房	-10.4701
宪法	-10.4702
敏感	-10.4703
苍	-10.4704
登陆	-10.4706
幸运	-10.4706
请求	-10.4707
火车	-10.4708
最重要的	-10.4709
25%	-10.471
增持	-10.4712
首位	-10.4712
村里	-10.4713
官网	-10.4714
慢慢	-10.4729
出线	-10.4729
汛	-10.473
二次	-10.473
贫	-10.4731
挣	-10.4731
电梯	-10.4731
es	-10.4731
车道	-10.4732
自杀	-10.4732
辖区	-10.4737
查看	-10.4741
热烈	-10.4742
街头	-10.4753
二级	-10.4759
公民	-10.4763
舒适	-10.4765
婷	-10.4772
ch	-10.4775
招标	-10.4779
辆车	-10.4781
国内外	-10.4784
蛇	-10.4789
十足	-10.4796
被告人	-10.4801
欧锦赛	-10.4802
传出	-10.4807
沿海	-10.4808
多项	-10.4816
引起了	-10.4822
证书	-10.4824
知情	-10.4826
合约	-10.4832
豪华	-10.4833
普及	-10.4833
袖	-10.4835
帮忙	-10.4841
周二	-10.4842
统筹	-10.4844
意愿	-10.4849
保留	-10.485
常见	-10.4853
时段	-10.4861
大概	-10.4862
趁	-10.4868
动漫	-10.4868
刮	-10.4872
人力资源	-10.4873
茨	-10.4878
判处	-10.4881
着陆	-10.4885
战机	-10.4893
舟	-10.49
载人航天	-10.4904
颖	-10.4905
痕	-10.4906
授权	-10.4912
网球	-10.4916
抢救	-10.4923
大厅	-10.4926
申购	-10.4934
碗	-10.4934
激励	-10.4938
军团	-10.494
浅	-10.4942
假冒	-10.4945
入选	-10.495
坚定	-10.4959
聚集	-10.4964
暂停	-10.4977
全民	-10.4983
股东大会	-10.499
渣	-10.4992
台风	-10.4992
多位	-10.4998
尤其	-10.5007
服务业	-10.5016
侵权	-10.5017
编制	-10.5027
张先生	-10.503
40%	-10.5032
表态	-10.5034
治安	-10.5039
远远	-10.5042
太平洋	-10.5042
奏	-10.5043
誓	-10.505
饭店	-10.5058
眼前	-10.506
整改	-10.5069
养生	-10.5071
键	-10.5071
帆	-10.5079
拆除	-10.5079
氛围	-10.5081
大批	-10.5084
客服	-10.5087
嘉宾	-10.5087
主管	-10.5091
分左右	-10.5093
已经成为	-10.5094
诚信	-10.5098
约合	-10.5106
长达	-10.5109
层次	-10.5114
风景	-10.5121
首相	-10.5121
阶梯电价	-10.5122
失败	-10.5123
战术	-10.5126
投放	-10.5128
交给	-10.5134
综	-10.514
拿着	-10.5152
据中国之声	-10.5155
腐败	-10.5155
频繁	-10.5156
群岛	-10.5157
茅台	-10.5158
港澳	-10.5159
美术	-10.516
姚明	-10.5162
第二季度	-10.5164
朝阳	-10.5164
昨日下午	-10.5166
职能	-10.5167
南昌	-10.5169
眼镜	-10.5169
图书	-10.517
约定	-10.5184
解除	-10.5185
聪	-10.5193
分析人士	-10.5195
给出	-10.52
陈某	-10.5206
连接	-10.5206
国防	-10.5209
精品	-10.5215
增多	-10.5224
克罗地亚	-10.5226
纤	-10.5228
圆满	-10.5232
林业	-10.5239
为例	-10.5244
迎接	-10.5246
演讲	-10.5253
黄河	-10.5256
市政	-10.5261
抢劫	-10.5262
买卖	-10.5263
阿根廷	-10.5263
产业链	-10.5264
女生	-10.5267
降价	-10.5268
全区	-10.5276
热议	-10.5281
炉	-10.5281
别墅	-10.5281
本土	-10.5293
黑龙江	-10.5294
氧	-10.5294
百姓	-10.5295
培育	-10.5296
力争	-10.5297
月中旬	-10.5297
播出	-10.5298
90%	-10.5303
学术	-10.5306
客运	-10.531
当选	-10.5311
全程	-10.5315
恶化	-10.5318
尝	-10.5324
宏观经济	-10.5333
胖	-10.5336
高尔夫	-10.5337
持平	-10.5341
决心	-10.5344
资助	-10.5349
受损	-10.5353
夜间	-10.5358
辖	-10.5362
尿	-10.5366
有助于	-10.5368
怡	-10.5369
吵	-10.5369
饼	-10.537
胡锦涛	-10.5371
遗产	-10.5375
构建	-10.5378
昨日上午	-10.5381
校园	-10.5388
指定	-10.5389
改进	-10.5393
甚	-10.5395
宝宝	-10.5398
海口	-10.5399
慰	-10.54
仰	-10.5403
逮捕	-10.5407
雾	-10.5409
新闻发布会上	-10.5413
纺织	-10.5413
箭	-10.5434
踪	-10.5476
渴	-10.5479
衷	-10.5482
淀	-10.5521
鼠	-10.5553
孝	-10.5584
呀	-10.5585
拐	-10.5586
抹	-10.5595
穴	-10.5598
斥	-10.5627
轴	-10.5629
劣	-10.5667
叠	-10.5667
雕	-10.5668
渝	-10.5668
罢	-10.5669
抄	-10.5669
兽	-10.5705
浑	-10.5705
卜	-10.5705
楠	-10.5705
疫	-10.5738
邱	-10.574
妮	-10.574
斜	-10.5744
煮	-10.5744
呆	-10.5777
骏	-10.578
蓉	-10.5818
狮	-10.5819
惑	-10.5825
葡	-10.583
舌	-10.5853
攀	-10.5854
皆	-10.5856
稻	-10.5857
勃	-10.5894
肾	-10.5897
剪	-10.5933
雯	-10.5933
芒	-10.5934
弘	-10.5936
喻	-10.6007
织	-10.6008
魂	-10.601
脆	-10.6011
夸	-10.6012
浸	-10.6015
妻	-10.6032
宅	-10.6041
昏	-10.605
旬	-10.6051
碳	-10.6085
辑	-10.6086
巾	-10.6089
搏	-10.6091
杠	-10.6127
啦	-10.613
泊	-10.6132
卸	-10.6133
擅	-10.6164
畜	-10.6167
耍	-10.6169
伍	-10.6208
挽	-10.6208
辽	-10.6245
夕	-10.6248
猎	-10.6251
酱	-10.6284
衫	-10.6286
匹	-10.6287
捡	-10.6291
笼	-10.6291
鹅	-10.6323
薇	-10.6329
坎	-10.6369
晃	-10.6372
惩	-10.6408
妨	-10.641
淋	-10.6413
究	-10.6446
堤	-10.645
纱	-10.645
辰	-10.6451
奢	-10.6452
洽	-10.649
灿	-10.6495
翠	-10.6504
蓬	-10.653
涝	-10.6534
枣	-10.6542
迅	-10.6569
鹤	-10.6571
璐	-10.6572
扔	-10.6573
羽	-10.6575
葬	-10.6581
琪	-10.6648
握	-10.6648
垂	-10.6657
宪	-10.669
虾	-10.6699
肚	-10.6778
柯	-10.6779
惯	-10.6781
佐	-10.6781
够	-10.6813
鲍	-10.6824
胞	-10.6829
婴	-10.6847
恼	-10.6862
霜	-10.6867
嫁	-10.6867
贼	-10.6868
虑	-10.6903
趟	-10.6909
萌	-10.691
召	-10.6932
歇	-10.694
豫	-10.6951
殖	-10.6952
析	-10.6985
铃	-10.6988
雇	-10.6991
覆	-10.6991
钩	-10.6995
吞	-10.7035
膝	-10.7041
仕	-10.7042
符	-10.7073
馨	-10.7079
馈	-10.7083
壤	-10.7085
凝	-10.7125
婆	-10.715
勾	-10.7165
牲	-10.7167
询	-10.7205
彼	-10.7207
踩	-10.7211
霆	-10.7212
汁	-10.7219
棵	-10.7255
乒	-10.7255
闽	-10.726
逛	-10.7298
仇	-10.7301
刹	-10.7301
腻	-10.7302
汕	-10.7304
倡	-10.7337
乃	-10.7337
衬	-10.7385
帐	-10.7389
屿	-10.7389
辟	-10.7394
娇	-10.7432
闸	-10.7434
甩	-10.7477
咖	-10.7478
寸	-10.7479
靓	-10.7481
砂	-10.7483
磁	-10.7485
拓	-10.7505
珊	-10.7519
骚	-10.7522
惹	-10.7526
铭	-10.7528
铅	-10.7553
毕	-10.7563
酬	-10.7564
扮	-10.7566
恤	-10.7566
啥	-10.7568
滥	-10.757
捉	-10.7571
熬	-10.7572
爸	-10.7612
廷	-10.7613
肢	-10.7615
绣	-10.7659
拾	-10.7663
尺	-10.7664
媛	-10.7666
枕	-10.7699
尸	-10.7703
螺	-10.7707
跪	-10.7715
祝	-10.7743
抑	-10.7745
妥	-10.7751
罩	-10.7756
泼	-10.78
厉	-10.78
瓷	-10.7801
齿	-10.7807
丑	-10.7844
赠	-10.7844
奉	-10.7844
腕	-10.7849
厦	-10.7856
逝	-10.789
犬	-10.7891
诈	-10.7892
蒸	-10.7893
臭	-10.7894
寂	-10.7931
嫩	-10.7944
肿	-10.7945
韵	-10.7986
愤	-10.7987
钦	-10.7988
侃	-10.799
滕	-10.8033
洒	-10.8038
腔	-10.808
奎	-10.8085
∶	-10.8086
漠	-10.8089
悉	-10.8122
扳	-10.8132
巢	-10.8178
筋	-10.8179
忌	-10.818
辨	-10.8182
粽	-10.8214
悔	-10.8226
匆	-10.8228
淫	-10.8229
靖	-10.8229
谣	-10.8232
昭	-10.8278
驳	-10.8279
纬	-10.828
傅	-10.8295
掘	-10.8321
尹	-10.8326
赃	-10.8327
乞	-10.8331
冈	-10.8338
纽	-10.8372
掏	-10.8373
纷	-10.8423
潇	-10.8427
僵	-10.8428
倩	-10.8431
侣	-10.8479
扯	-10.8481
邢	-10.8521
槽	-10.8525
慈	-10.8574
霉	-10.8576
杏	-10.8576
缠	-10.8668
删	-10.8675
泌	-10.8688
漆	-10.8721
薛	-10.8726
肌	-10.8727
渗	-10.878
篷	-10.878
橙	-10.8785
歉	-10.8799
俱	-10.8826
绩	-10.8855
履	-10.8872
描	-10.8879
皓	-10.8932
亨	-10.8932
盯	-10.9033
骤	-10.9042
赎	-10.9076
渤	-10.9086
恨	-10.9089
j	-10.9093
唤	-10.9093
遂	-10.9093
湛	-10.9094
颠	-10.9141
御	-10.9142
己	-10.919
瑟	-10.9197
庐	-10.9237
浙	-10.9245
崖	-10.9246
蕴	-10.9248
玄	-10.925
瘾	-10.9253
噪	-10.9254
瑶	-10.9292
菱	-10.9304
赋	-10.9308
禽	-10.9309
措	-10.9357
澡	-10.9358
疯	-10.9361
函	-10.9362
殴	-10.9362
炫	-10.9364
努	-10.9406
昊	-10.9409
芙	-10.9413
匪	-10.9414
彻	-10.9416
愁	-10.9417
裹	-10.9469
醇	-10.9532
障	-10.9569
爹	-10.9636
喀	-10.9639
唇	-10.9642
淘	-10.9683
喂	-10.9685
渠	-10.9693
葱	-10.9745
蹲	-10.9747
哀	-10.9749
披	-10.9804
雀	-10.9808
怨	-10.9861
姨	-10.9861
呵	-10.9863
祭	-10.9864
狱	-10.9864
翁	-10.9864
晤	-10.9865
崩	-10.9866
厄	-10.9869
颁	-10.9907
燥	-10.9919
粹	-10.9919
咸	-10.9976
毯	-10.9978
驰	-10.9979
鞍	-10.998
虐	-10.9981
梨	-10.999
瞒	-11.0032
浇	-11.0034
雁	-11.0034
屯	-11.0034
羞	-11.0035
萝	-11.0038
殿	-11.0039
鸭	-11.0039
敞	-11.0092
辱	-11.0093
泸	-11.0096
磋	-11.0212
溃	-11.0213
饶	-11.0214
黔	-11.0216
丘	-11.0218
郝	-11.0221
芦	-11.0271
挨	-11.0272
牟	-11.0276
央	-11.0278
概	-11.0297
莓	-11.0322
束	-11.0325
撑	-11.0331
凑	-11.0331
剥	-11.0333
琦	-11.0386
晖	-11.0388
幢	-11.0391
贬	-11.0392
熙	-11.0395
悍	-11.0397
脾	-11.0446
哦	-11.0452
缆	-11.0454
豹	-11.0455
澜	-11.0455
丛	-11.0457
椒	-11.0458
沫	-11.0459
菊	-11.0504
桩	-11.051
睹	-11.0514
泵	-11.0516
谊	-11.0516
诞	-11.057
枯	-11.0571
炜	-11.0572
钙	-11.0594
兜	-11.0637
夷	-11.0638
淑	-11.0639
贞	-11.0641
眠	-11.0642
旨	-11.0689
谍	-11.0701
翅	-11.0701
厌	-11.0762
谨	-11.0763
扒	-11.0769
祸	-11.0775
衍	-11.0822
谎	-11.0822
弈	-11.0826
缉	-11.0829
咱	-11.0882
漳	-11.0887
宙	-11.0889
倪	-11.0891
杭	-11.0893
惧	-11.0948
卿	-11.1006
浆	-11.1008
桐	-11.1015
秉	-11.1018
昔	-11.1018
竭	-11.1019
媳	-11.1071
宠	-11.1073
痴	-11.1078
鲸	-11.1144
茄	-11.1147
勿	-11.1149
芹	-11.1203
悟	-11.1209
蒲	-11.1211
朋	-11.1212
>	-11.1213
膀	-11.1213
栽	-11.1218
躁	-11.1274
姑	-11.1275
伐	-11.1337
冶	-11.1345
沂	-11.1347
柴	-11.1386
婉	-11.141
扁	-11.1413
励	-11.1455
殊	-11.1468
荆	-11.1476
洼	-11.1477
屠	-11.1477
溯	-11.1478
愉	-11.1478
炳	-11.1478
禅	-11.148
械	-11.1536
脖	-11.1541
涯	-11.1545
茫	-11.1545
筒	-11.1549
垮	-11.1549
粕	-11.161
狭	-11.1611
彬	-11.1618
峡	-11.1665
咋	-11.1678
钉	-11.168
顷	-11.1688
匀	-11.1751
笛	-11.1819
肆	-11.1819
胀	-11.1885
削	-11.1885
俭	-11.1886
礁	-11.1888
顽	-11.1889
圭	-11.189
沾	-11.1891
蔽	-11.1951
赣	-11.1959
嘱	-11.1961
丸	-11.2028
穗	-11.203
邪	-11.2031
撰	-11.2032
蝶	-11.2104
驴	-11.211
硫	-11.2174
猴	-11.2178
荫	-11.2239
悼	-11.2245
氨	-11.2246
筛	-11.2246
羡	-11.2247
傲	-11.2248
铲	-11.2251
妖	-11.2252
阜	-11.226
烫	-11.2318
粘	-11.232
荔	-11.2322
谦	-11.2322
茅	-11.2387
饿	-11.2392
睿	-11.2394
龟	-11.2396
乖	-11.2463
鄂	-11.2467
哨	-11.2469
煎	-11.2469
蛛	-11.2474
撕	-11.2541
荐	-11.2545
娅	-11.2548
隙	-11.2548
厢	-11.2601
锥	-11.2616
勉	-11.262
泻	-11.2622
敷	-11.2687
饲	-11.2691
瑜	-11.2691
弊	-11.2697
詹	-11.2764
佣	-11.2767
靡	-11.2768
炭	-11.2768
聂	-11.2769
糯	-11.2769
瘫	-11.2771
祈	-11.2841
蛮	-11.2846
昕	-11.2846
弥	-11.2847
钓	-11.2851
棍	-11.292
搁	-11.2924
兄	-11.2929
藤	-11.2933
循	-11.2998
=	-11.2998
橡	-11.2999
钞	-11.3001
阎	-11.3002
硅	-11.3075
碱	-11.3076
磅	-11.3078
懒	-11.3079
捏	-11.308
斩	-11.3083
巅	-11.3158
犀	-11.3159
竖	-11.3162
啸	-11.3163
锤	-11.3167
锣	-11.3236
蔚	-11.3239
彪	-11.324
缔	-11.3241
吼	-11.3316
蚁	-11.332
焚	-11.3322
歹	-11.3323
匿	-11.3324
愧	-11.3403
鲨	-11.3409
瞄	-11.341
椎	-11.3411
鉴	-11.3467
喘	-11.3476
矮	-11.3479
翟	-11.348
绪	-11.3546
烹	-11.356
耽	-11.3562
碟	-11.3563
窟	-11.3565
禺	-11.3566
粪	-11.3567
膏	-11.3575
芭	-11.3637
焕	-11.3647
樊	-11.3649
溶	-11.365
龚	-11.3651
淇	-11.3651
坍	-11.3731
拢	-11.3733
捣	-11.3734
鞭	-11.3737
仗	-11.3804
仑	-11.3823
%	-11.3835
珺	-11.39
盾	-11.39
嘛	-11.3902
媚	-11.3903
淤	-11.3913
猩	-11.3916
掀	-11.396
爵	-11.3983
歪	-11.3987
矩	-11.3987
闫	-11.3988
纺	-11.399
淄	-11.399
郴	-11.3997
甸	-11.4068
跻	-11.4074
辜	-11.4078
菇	-11.4079
兔	-11.4082
汞	-11.4082
翘	-11.4162
框	-11.4162
傻	-11.4163
熄	-11.4165
诠	-11.4166
榆	-11.4167
埠	-11.417
萃	-11.4178
咳	-11.4244
喇	-11.4253
蜀	-11.4258
榄	-11.426
弧	-11.4261
贿	-11.4321
践	-11.4334
宰	-11.4336
矫	-11.4339
捍	-11.4341
奕	-11.4347
撬	-11.4351
磷	-11.4412
潍	-11.4425
溜	-11.443
讳	-11.443
琐	-11.4431
讽	-11.4432
饥	-11.4432
玮	-11.4434
蟹	-11.4436
焊	-11.4437
阐	-11.4437
锌	-11.4438
肃	-11.4438
绽	-11.4439
睁	-11.4519
魁	-11.4523
薯	-11.4524
冀	-11.4525
俏	-11.4525
搅	-11.4526
娴	-11.4527
垒	-11.4527
丈	-11.4607
涡	-11.461
凳	-11.4611
捆	-11.4614
瞻	-11.4614
堰	-11.4619
胺	-11.462
闺	-11.4705
枫	-11.4707
铸	-11.4708
哑	-11.4708
髓	-11.471
捅	-11.471
拌	-11.4713
喉	-11.4802
淳	-11.4802
骸	-11.4805
沦	-11.4892
勋	-11.4892
徊	-11.4894
胳	-11.4895
耿	-11.4896
甫	-11.4897
帘	-11.4899
趴	-11.4988
庸	-11.4992
咒	-11.4997
殷	-11.5082
咽	-11.5082
剔	-11.5084
陀	-11.5085
袍	-11.5085
谜	-11.5086
粥	-11.509
溺	-11.5175
拱	-11.5184
湄	-11.5185
摧	-11.5187
芽	-11.519
菏	-11.5194
婿	-11.5273
梳	-11.5275
栖	-11.528
禾	-11.5282
肋	-11.5282
曦	-11.5283
郡	-11.5284
奈	-11.5377
畏	-11.5378
甄	-11.5378
瀑	-11.5381
拯	-11.5382
麟	-11.5383
迭	-11.5385
冤	-11.5478
逗	-11.5478
棕	-11.5478
妍	-11.5478
窜	-11.5478
僧	-11.548
蚀	-11.5483
涅	-11.5487
荧	-11.549
皱	-11.5577
沐	-11.5578
锂	-11.5579
梓	-11.5584
煌	-11.5585
昧	-11.5676
妞	-11.5682
魄	-11.5682
稽	-11.5683
巍	-11.5683
屁	-11.5684
惟	-11.5684
沸	-11.5686
殡	-11.5687
硝	-11.5692
q	-11.5782
贡	-11.5782
罕	-11.5784
韶	-11.5785
霖	-11.5786
氯	-11.5787
槌	-11.5787
阮	-11.5788
沧	-11.5791
叛	-11.5791
舅	-11.5805
镀	-11.5892
朔	-11.5893
匠	-11.59
涪	-11.5983
蹦	-11.5994
稠	-11.5995
叮	-11.5997
绯	-11.6
秸	-11.6099
嵌	-11.6099
耻	-11.6102
遵	-11.6103
娄	-11.6109
寡	-11.6109
宛	-11.6206
丙	-11.621
倦	-11.6211
韧	-11.6213
沥	-11.6215
沛	-11.6215
瑾	-11.622
佟	-11.632
篡	-11.6324
蝉	-11.6324
灸	-11.6419
奠	-11.6421
靶	-11.6428
祁	-11.6429
熏	-11.6429
&	-11.643
墩	-11.6433
攒	-11.6437
挠	-11.6441
寥	-11.6531
叉	-11.6532
豁	-11.6537
嘲	-11.6538
芮	-11.6542
涩	-11.6542
苇	-11.6642
徽	-11.6645
芯	-11.6647
糕	-11.6649
崎	-11.665
靴	-11.6652
郅	-11.6652
镶	-11.6652
珀	-11.6653
哗	-11.6655
蔬	-11.6656
刃	-11.6658
蝇	-11.6662
绸	-11.6754
扛	-11.6761
壹	-11.6761
烘	-11.6762
狐	-11.677
漓	-11.6877
钮	-11.6878
泣	-11.688
沁	-11.6881
宵	-11.6885
巩	-11.6887
畔	-11.6887
陕	-11.6978
岚	-11.6993
厘	-11.6995
峨	-11.6997
嫂	-11.6999
吾	-11.6999
呕	-11.7
醛	-11.7002
苯	-11.7007
犁	-11.7009
熠	-11.7009
辄	-11.7109
彤	-11.7109
蠢	-11.711
乾	-11.7111
陡	-11.7111
隶	-11.7114
苛	-11.7114
垦	-11.7115
鞠	-11.7228
秆	-11.7231
恳	-11.7236
娶	-11.7238
揪	-11.7241
寓	-11.7348
括	-11.7349
颐	-11.7349
藻	-11.7468
怜	-11.7471
渊	-11.7474
斐	-11.7474
玻	-11.7474
慨	-11.7475
忆	-11.748
嚣	-11.7481
棺	-11.7484
绅	-11.7591
汾	-11.7595
茹	-11.7599
舜	-11.7599
弦	-11.76
郸	-11.7604
碾	-11.7605
沼	-11.7607
痒	-11.7608
雌	-11.762
拎	-11.7717
奸	-11.7718
妃	-11.7719
颂	-11.7719
菁	-11.7723
咏	-11.7723
瑕	-11.7723
渭	-11.7724
梭	-11.7725
琢	-11.7725
黛	-11.7729
翡	-11.7763
滤	-11.784
锈	-11.7846
肇	-11.7847
秽	-11.7851
嘎	-11.7852
啃	-11.7852
斋	-11.7853
襄	-11.7853
佑	-11.7854
钾	-11.7854
灶	-11.7856
醋	-11.7856
纶	-11.7976
缪	-11.7977
窖	-11.7977
睫	-11.798
臻	-11.7981
栓	-11.7982
饷	-11.7987
膨	-11.8098
掐	-11.8103
哄	-11.8105
氮	-11.8107
溉	-11.811
黏	-11.8111
榕	-11.8112
镁	-11.8112
拇	-11.8115
觅	-11.8116
爪	-11.8116
|	-11.8128
抖	-11.8236
筝	-11.8237
慑	-11.8239
嗓	-11.824
岂	-11.824
濒	-11.8243
虞	-11.8245
埔	-11.825
绚	-11.8252
镖	-11.8254
盔	-11.8266
诀	-11.8373
灼	-11.8374
#	-11.8374
奴	-11.8374
俯	-11.8375
凸	-11.8375
诵	-11.8378
鳄	-11.8379
邯	-11.8379
赡	-11.8379
绷	-11.838
杞	-11.8385
勺	-11.85
怎	-11.8501
潢	-11.8502
葵	-11.8506
畴	-11.8507
珞	-11.8509
拽	-11.851
钛	-11.851
汀	-11.8511
毙	-11.8512
诡	-11.8514
俺	-11.8514
莞	-11.8635
弓	-11.8637
焰	-11.864
藉	-11.8641
橘	-11.8643
屑	-11.8644
掷	-11.8647
汶	-11.8651
阀	-11.8653
芸	-11.8654
卵	-11.8656
铬	-11.8781
庚	-11.8785
淼	-11.8785
捂	-11.8786
拭	-11.8787
衢	-11.8787
锯	-11.8787
踝	-11.8788
彝	-11.8788
柿	-11.8788
豚	-11.879
焱	-11.879
钧	-11.879
盏	-11.8796
巫	-11.88
瞧	-11.8913
钨	-11.8917
籽	-11.8918
骆	-11.892
曙	-11.8924
陋	-11.8926
膳	-11.8927
缸	-11.8927
凹	-11.8928
塾	-11.893
岑	-11.9065
姬	-11.9069
幽	-11.9069
蹭	-11.9069
剿	-11.9072
瀚	-11.9073
竿	-11.9073
嫖	-11.9081
圩	-11.9092
榨	-11.9206
铂	-11.9208
佼	-11.9209
蹄	-11.9214
樱	-11.9217
祛	-11.9218
樟	-11.9218
擒	-11.9219
锚	-11.9219
魅	-11.9223
肘	-11.9224
蟒	-11.9321
鲳	-11.934
嗽	-11.9348
羲	-11.9349
栅	-11.9354
狄	-11.9359
蛙	-11.936
褐	-11.9361
吁	-11.9361
袂	-11.9362
糟	-11.9363
聋	-11.9364
昼	-11.9365
剖	-11.9366
潼	-11.9369
赐	-11.9503
惫	-11.9506
垢	-11.9509
霄	-11.9509
囤	-11.9509
缅	-11.9513
伺	-11.9513
敛	-11.9515
栗	-11.9526
胰	-11.9534
澈	-11.9654
劈	-11.9659
骄	-11.9661
谌	-11.9662
沽	-11.9663
揉	-11.9663
夯	-11.9669
鸽	-11.9671
谐	-11.9766
跷	-11.981
蓟	-11.9814
梧	-11.9815
蘑	-11.9816
掠	-11.9817
旷	-11.9817
炙	-11.9819
芜	-11.9819
祠	-11.982
喧	-11.9821
娱	-11.9825
雏	-11.9965
绰	-11.9968
瘤	-11.9969
岐	-11.997
颅	-11.9972
儒	-11.9973
哇	-11.9976
窑	-11.9977
恭	-11.998
眩	-12.0128
噩	-12.0128
辗	-12.0128
嘘	-12.013
粟	-12.013
诫	-12.013
颤	-12.013
囚	-12.0131
憋	-12.0132
秤	-12.0132
邸	-12.0134
棘	-12.0135
酶	-12.0137
「	-12.0139
佬	-12.0141
轿	-12.0283
颓	-12.0287
躬	-12.0291
钼	-12.0292
槐	-12.0294
氢	-12.0296
浊	-12.0299
呐	-12.0301
晏	-12.0305
熔	-12.0434
愣	-12.0444
暇	-12.0447
哎	-12.0449
孜	-12.0449
腊	-12.0451
杉	-12.0452
踊	-12.0454
羁	-12.0455
邑	-12.0456
滇	-12.0457
柄	-12.0458
酯	-12.0459
黯	-12.0461
糙	-12.0461
嬉	-12.0464
鄞	-12.0464
」	-12.0465
嵩	-12.0465
枸	-12.047
哮	-12.0615
翩	-12.0617
允	-12.0619
卑	-12.0619
馅	-12.0619
孵	-12.0621
卉	-12.0622
磕	-12.0623
脊	-12.0628
禄	-12.0629
丫	-12.0785
簿	-12.0787
兮	-12.0787
蜗	-12.0788
妓	-12.0791
皖	-12.0792
戚	-12.0795
窘	-12.0797
蜡	-12.0798
萎	-12.0799
笨	-12.0803
滘	-12.0958
趸	-12.096
耸	-12.096
寝	-12.0962
贮	-12.0962
窍	-12.0963
肴	-12.0963
烽	-12.0963
拴	-12.0963
咪	-12.0966
茎	-12.0966
栾	-12.0966
臀	-12.0971
渍	-12.0973
啤	-12.0982
咎	-12.1136
咧	-12.1136
缚	-12.1139
眷	-12.114
疹	-12.1141
汝	-12.1142
斧	-12.1142
煞	-12.1142
韭	-12.1144
愚	-12.1309
痞	-12.1311
灏	-12.1315
禹	-12.1316
覃	-12.1317
憾	-12.1318
憨	-12.1319
凿	-12.132
澎	-12.1321
嘅	-12.1323
娥	-12.1325
猝	-12.1328
卤	-12.134
岔	-12.1491
憬	-12.1497
笋	-12.1498
掺	-12.1499
峙	-12.15
煲	-12.15
骁	-12.1501
彰	-12.1503
茵	-12.1503
梵	-12.1505
蜕	-12.1506
韬	-12.1508
寅	-12.1514
谓	-12.1648
叨	-12.1678
鳌	-12.1681
绒	-12.1682
筐	-12.1683
颊	-12.1683
蕉	-12.1684
厮	-12.1685
匮	-12.1686
蝗	-12.1686
罹	-12.1686
橱	-12.1686
冉	-12.1687
蹿	-12.169
嫣	-12.1697
晟	-12.1702
辕	-12.1702
暧	-12.1859
姥	-12.1867
脐	-12.1868
疵	-12.1869
闵	-12.1875
睦	-12.1875
袜	-12.1878
窦	-12.188
薰	-12.1885
峪	-12.1893
孩	-12.2028
枢	-12.2056
侮	-12.2061
苟	-12.2062
鹭	-12.2063
吟	-12.2063
猥	-12.2065
僻	-12.2068
壶	-12.2069
缀	-12.207
砌	-12.2072
瓣	-12.2072
楷	-12.2074
挟	-12.2074
斓	-12.2078
绮	-12.2081
沱	-12.225
墅	-12.2255
钰	-12.2258
蔷	-12.2259
剃	-12.2259
卦	-12.226
亵	-12.226
桦	-12.2261
伽	-12.2261
璇	-12.2262
皂	-12.2262
烁	-12.2264
莆	-12.2267
厥	-12.2267
濛	-12.2444
疤	-12.2448
婕	-12.245
喆	-12.2453
悖	-12.2453
奚	-12.2454
氟	-12.2458
贱	-12.2461
鸦	-12.2461
乓	-12.2463
狸	-12.2465
梗	-12.2465
揣	-12.2466
抨	-12.2466
垣	-12.2467
亥	-12.2467
稚	-12.247
馥	-12.2471
恺	-12.2471
螂	-12.2662
槟	-12.2665
陇	-12.2667
茜	-12.2668
墟	-12.2671
酮	-12.2671
陂	-12.2673
哺	-12.2674
酚	-12.2675
瞿	-12.2865
怠	-12.2866
崽	-12.2866
廓	-12.2867
逍	-12.287
抒	-12.2872
刁	-12.2873
烛	-12.2877
畸	-12.2877
慷	-12.288
渎	-12.288
簧	-12.2887
娲	-12.3077
妄	-12.308
瓯	-12.3083
侍	-12.3086
绞	-12.3089
饵	-12.309
悸	-12.309
踹	-12.309
仆	-12.309
腥	-12.3091
隅	-12.3093
涟	-12.3095
厕	-12.3289
洙	-12.3301
匾	-12.3302
睛	-12.3302
铮	-12.3302
靳	-12.3305
逮	-12.3305
矢	-12.3305
淌	-12.3305
乍	-12.3306
匝	-12.3308
溅	-12.3309
辙	-12.331
璧	-12.3311
蝎	-12.3311
硒	-12.3311
羚	-12.3315
搓	-12.3317
嗅	-12.3514
珂	-12.3518
涤	-12.3519
褒	-12.352
烯	-12.3524
璀	-12.3524
辍	-12.3524
檐	-12.3527
坟	-12.3527
婧	-12.3533
桨	-12.3535
柠	-12.3537
蕊	-12.3538
羌	-12.3751
擂	-12.3752
窥	-12.3752
挎	-12.3753
淖	-12.3753
酣	-12.3753
瞪	-12.3754
侄	-12.3755
晾	-12.3756
琅	-12.3756
釜	-12.3757
笠	-12.376
瑛	-12.3763
檬	-12.3763
毓	-12.3767
唔	-12.3982
忻	-12.3982
躯	-12.3984
倘	-12.3985
驼	-12.3986
痰	-12.3986
轧	-12.3986
绥	-12.3986
麒	-12.3987
钠	-12.3987
夭	-12.399
戳	-12.3992
桔	-12.3995
郜	-12.3999
荟	-12.4019
惶	-12.4214
曰	-12.4215
鄱	-12.4218
诧	-12.4219
枉	-12.422
婺	-12.422
〉	-12.4223
璨	-12.4223
膺	-12.4227
罄	-12.4227
檀	-12.4227
峻	-12.4228
斡	-12.4231
町	-12.4232
藩	-12.4235
鲤	-12.424
榴	-12.4241
禧	-12.446
玥	-12.4464
瞬	-12.4466
祷	-12.4466
殃	-12.4467
扼	-12.4467
蚂	-12.4468
唠	-12.4468
冼	-12.4471
驿	-12.4471
汨	-12.4472
钊	-12.4473
滔	-12.4475
唾	-12.4477
俑	-12.4477
麓	-12.4477
濮	-12.4496
瓢	-12.4706
邬	-12.4708
絮	-12.4711
竺	-12.4712
蚕	-12.4713
恍	-12.4713
坷	-12.4716
棱	-12.4717
庇	-12.4719
妩	-12.4719
渺	-12.4719
舵	-12.4719
钒	-12.472
炯	-12.472
疚	-12.472
撇	-12.4721
岷	-12.4721
赘	-12.4723
钋	-12.4723
疮	-12.4725
栈	-12.4729
弛	-12.4729
伶	-12.474
蔗	-12.4955
峥	-12.4968
姗	-12.4968
绊	-12.497
钳	-12.497
跤	-12.4972
瞎	-12.4972
觑	-12.4973
镑	-12.4974
趾	-12.4975
亳	-12.4976
渲	-12.4976
敖	-12.4976
匡	-12.4977
腌	-12.4981
隽	-12.4981
雍	-12.4981
痘	-12.4982
岫	-12.4982
嚷	-12.5232
苓	-12.5232
'	-12.5234
戎	-12.5235
茸	-12.5236
蓓	-12.5237
曳	-12.5238
搀	-12.5238
烷	-12.524
榻	-12.5242
泗	-12.5242
遐	-12.5243
踵	-12.5244
缕	-12.5244
酉	-12.5246
椰	-12.5247
倚	-12.5248
坞	-12.5261
蜥	-12.5493
漩	-12.5499
喃	-12.55
饺	-12.5502
痹	-12.5506
褪	-12.5507
簇	-12.5509
泾	-12.5509
砺	-12.5509
暮	-12.551
懊	-12.5512
呛	-12.5512
祀	-12.5512
沅	-12.5512
琉	-12.5515
嘿	-12.5516
亢	-12.5517
裴	-12.5517
羹	-12.5517
嗜	-12.5519
伎	-12.552
骊	-12.5771
歧	-12.5775
狡	-12.5775
吝	-12.5776
瞅	-12.5779
嘟	-12.5782
隋	-12.5783
酌	-12.5784
屎	-12.5784
炅	-12.5784
¥	-12.5785
懵	-12.5787
贻	-12.5788
尧	-12.5788
蹬	-12.579
苞	-12.5792
骋	-12.5792
芥	-12.5793
沓	-12.5793
甬	-12.5793
皋	-12.6027
迥	-12.6066
咚	-12.6066
眨	-12.6067
摒	-12.607
姻	-12.6072
〈	-12.6075
圃	-12.6075
炖	-12.6078
蘸	-12.6079
<	-12.6079
掖	-12.608
寇	-12.608
焙	-12.6084
莺	-12.6358
跋	-12.6358
邕	-12.6359
酪	-12.6359
眯	-12.6362
胤	-12.6363
烨	-12.6366
毗	-12.6367
篆	-12.6367
绎	-12.6368
襟	-12.6369
驭	-12.6369
拷	-12.637
眸	-12.6379
卒	-12.638
撮	-12.6657
祎	-12.6658
簸	-12.6659
虔	-12.666
秃	-12.6662
漾	-12.6663
栩	-12.6664
胚	-12.6667
俐	-12.6668
囧	-12.6669
笃	-12.6672
〕	-12.6673
〔	-12.6673
咨	-12.6673
萱	-12.6676
戍	-12.6676
煽	-12.6676
渚	-12.6691
褚	-12.6965
坨	-12.6971
晰	-12.6974
庵	-12.6975
浒	-12.6976
苔	-12.6977
抠	-12.6977
茗	-12.6978
蒿	-12.698
琨	-12.6981
逞	-12.6982
矣	-12.6982
筏	-12.6984
坯	-12.6984
蹈	-12.6984
鸠	-12.6986
腱	-12.6987
幌	-12.6989
铀	-12.699
楞	-12.6992
岙	-12.6993
恢	-12.6993
轶	-12.6993
弋	-12.7289
碁	-12.7293
镍	-12.7294
裱	-12.7295
杖	-12.7297
帷	-12.7301
啪	-12.7303
秧	-12.7304
矛	-12.7304
钯	-12.7304
怯	-12.7304
摁	-12.7305
鳞	-12.7306
舆	-12.7308
殉	-12.7309
攘	-12.7312
庾	-12.7315
翊	-12.7621
茬	-12.7635
嚼	-12.7635
芷	-12.7636
绛	-12.7637
琥	-12.7639
撼	-12.764
蚌	-12.764
锄	-12.7641
耒	-12.7642
俪	-12.7643
砰	-12.7647
陨	-12.7647
漱	-12.7659
佰	-12.7659
塆	-12.7666
柬	-12.7974
毂	-12.7975
迸	-12.7979
涧	-12.798
荞	-12.798
拙	-12.7981
踞	-12.7986
葆	-12.7986
箬	-12.7986
赟	-12.799
祺	-12.799
嫦	-12.7991
煜	-12.7993
耘	-12.7993
辫	-12.7994
滁	-12.7994
飚	-12.7997
菡	-12.8326
霓	-12.8328
恬	-12.833
鹃	-12.8336
泱	-12.8337
毡	-12.8339
莅	-12.8339
桓	-12.8342
妒	-12.8343
宕	-12.8343
潺	-12.8343
腮	-12.8344
胁	-12.8344
睬	-12.8347
袅	-12.8348
缭	-12.8351
藿	-12.8352
拧	-12.8352
霏	-12.8689
咕	-12.8696
疡	-12.8702
惮	-12.8702
赦	-12.8704
炽	-12.8706
骇	-12.8707
涕	-12.8709
珑	-12.8709
炊	-12.871
钵	-12.8711
鄙	-12.8712
姝	-12.8712
闰	-12.8713
嫉	-12.8713
癫	-12.8713
晔	-12.8714
孰	-12.8719
暄	-12.8719
榷	-12.874
钹	-12.9047
涿	-12.9073
朕	-12.9078
嘻	-12.9083
祯	-12.9087
筷	-12.9088
哟	-12.9089
鸥	-12.909
捺	-12.909
箍	-12.9091
歼	-12.9092
锰	-12.9093
遛	-12.9094
俘	-12.9094
噬	-12.9095
掣	-12.9096
玺	-12.9096
泺	-12.9096
遨	-12.9098
湃	-12.9098
琛	-12.9099
棠	-12.91
痱	-12.91
淅	-12.9101
颌	-12.9102
芋	-12.9106
洮	-12.9474
烙	-12.948
裳	-12.9481
铐	-12.9481
唉	-12.9481
蟑	-12.9483
浃	-12.9483
哼	-12.9485
傍	-12.9488
胥	-12.9489
蜷	-12.949
癖	-12.9492
砚	-12.9493
搂	-12.9494
咯	-12.9494
僚	-12.9495
缨	-12.9496
镉	-12.9496
佘	-12.9497
冥	-12.9498
眺	-12.9499
祉	-12.9499
珉	-12.95
恙	-12.9501
墉	-12.9501
茧	-12.9502
堃	-12.9503
叩	-12.9505
蜇	-12.9512
璞	-12.9513
‰	-12.9514
$	-12.9892
桢	-12.9893
‘	-12.9896
邺	-12.9897
嗯	-12.9903
峭	-12.9903
衙	-12.9904
唏	-12.9905
拣	-12.9905
溧	-12.9906
兖	-12.9906
嘀	-12.9906
菅	-12.9908
柑	-12.9908
寐	-12.9908
孚	-12.991
姣	-12.991
瞳	-12.9911
哉	-12.9912
盎	-12.9913
刨	-12.9913
揍	-12.9915
酥	-12.9915
滦	-12.9915
沭	-12.9916
梢	-12.9918
镰	-12.9922
迦	-12.9923
嵇	-13.0316
’	-13.0329
谬	-13.0332
菩	-13.0336
迢	-13.0339
恪	-13.0341
锻	-13.0341
铿	-13.0345
煦	-13.0346
洱	-13.0348
撩	-13.0348
昱	-13.0349
汲	-13.0352
睾	-13.0358
滢	-13.0359
钝	-13.036
獒	-13.0364
蔺	-13.0786
铵	-13.0789
呗	-13.0793
屹	-13.0794
懿	-13.0795
尉	-13.0796
泞	-13.0798
粱	-13.0798
疱	-13.0799
砷	-13.0799
瘩	-13.08
裘	-13.08
雹	-13.0801
碌	-13.0802
濠	-13.0804
戟	-13.0804
鬓	-13.0807
朦	-13.0808
捎	-13.0808
钜	-13.0808
褥	-13.0808
珈	-13.0809
蠕	-13.081
睇	-13.0812
寰	-13.0813
殇	-13.0813
铢	-13.0816
谙	-13.0816
鳝	-13.0824
栀	-13.0834
偕	-13.1263
钗	-13.1265
嘈	-13.1272
霁	-13.1275
玫	-13.1277
碚	-13.1279
瑰	-13.128
挛	-13.1282
涮	-13.1283
泓	-13.1285
驹	-13.1287
鲫	-13.129
驯	-13.1291
璟	-13.1757
猾	-13.1762
徕	-13.177
焉	-13.1771
棣	-13.1771
惦	-13.1771
瑙	-13.1774
藕	-13.1774
漉	-13.1775
颢	-13.1776
屉	-13.1776
孽	-13.1776
蛾	-13.1777
萦	-13.1777
剽	-13.1778
娆	-13.1779
蕙	-13.1779
戮	-13.1779
於	-13.178
柚	-13.178
硼	-13.1782
莘	-13.1784
脯	-13.1785
岱	-13.1786
蹴	-13.1786
瀛	-13.1787
肽	-13.1789
幡	-13.1799
榭	-13.1799
歆	-13.2278
嵘	-13.2288
婶	-13.2289
瘀	-13.2295
丕	-13.2296
琰	-13.2297
讪	-13.2298
锹	-13.2299
卞	-13.2299
苜	-13.23
姊	-13.2301
咀	-13.2302
孳	-13.2302
昵	-13.2305
庶	-13.2305
癣	-13.2306
拈	-13.2306
瞰	-13.2307
瘟	-13.2307
龛	-13.2307
莽	-13.2307
虱	-13.2307
猿	-13.2308
啼	-13.231
筠	-13.231
晦	-13.2311
薏	-13.2313
泠	-13.2314
岘	-13.2836
讹	-13.2845
蹒	-13.2845
拮	-13.2851
鳖	-13.2851
锔	-13.2852
钥	-13.2853
遏	-13.2853
蔑	-13.2853
骥	-13.2854
酩	-13.2854
锵	-13.2856
醚	-13.2858
舷	-13.2859
铤	-13.2859
卯	-13.2859
艮	-13.286
昙	-13.286
袒	-13.2861
鳍	-13.2861
憩	-13.2862
銮	-13.2863
腋	-13.2864
喺	-13.2864
汰	-13.2864
啲	-13.2864
禀	-13.2864
仟	-13.2864
赊	-13.2866
诬	-13.2867
槿	-13.2869
臆	-13.2872
倔	-13.3434
慵	-13.3437
毽	-13.344
畲	-13.344
轼	-13.344
愕	-13.3441
脓	-13.3442
荨	-13.3444
褶	-13.3445
矶	-13.3445
呜	-13.3446
砥	-13.3447
偎	-13.3448
匙	-13.3448
腩	-13.3448
讷	-13.3449
讥	-13.3449
铉	-13.3449
摹	-13.345
嗨	-13.3451
蝽	-13.3452
饕	-13.3453
戊	-13.3454
擎	-13.3455
嘶	-13.3455
壑	-13.3457
铆	-13.3459
缄	-13.4061
拄	-13.4063
铠	-13.4065
扈	-13.4066
锆	-13.4068
阙	-13.4068
叱	-13.4069
飓	-13.4069
穹	-13.4071
唬	-13.4072
糗	-13.4072
朽	-13.4073
帚	-13.4074
镐	-13.4074
哋	-13.4074
唁	-13.4075
晗	-13.4076
啖	-13.4077
镯	-13.4079
胯	-13.4079
匣	-13.408
铛	-13.4083
诛	-13.4084
侗	-13.4086
漪	-13.409
妤	-13.4094
缎	-13.4712
孢	-13.4716
枭	-13.4717
拗	-13.4721
摞	-13.4725
氙	-13.4729
荤	-13.4733
碘	-13.4735
浜	-13.4735
噼	-13.4735
堕	-13.4736
疟	-13.4737
凋	-13.4737
拂	-13.4737
é	-13.4738
箩	-13.4738
仨	-13.4738
隧	-13.4738
芪	-13.4738
剐	-13.4739
溴	-13.4739
鸯	-13.474
锴	-13.474
懋	-13.4742
帧	-13.4742
冗	-13.4743
芊	-13.4744
苋	-13.4747
怂	-13.4748
喵	-13.4749
镂	-13.4752
磐	-13.4754
扉	-13.4756
嵊	-13.4756
凛	-13.476
堑	-13.4782
箫	-13.5418
篾	-13.5439
崴	-13.544
璋	-13.5441
咣	-13.5443
翀	-13.5443
凄	-13.5443
挞	-13.5445
恕	-13.5445
惰	-13.5446
磺	-13.5447
乜	-13.5448
莜	-13.545
裆	-13.545
幂	-13.545
邝	-13.5452
淞	-13.5452
殆	-13.5453
膦	-13.5453
烊	-13.5453
灞	-13.5454
吏	-13.5454
唆	-13.5455
缰	-13.5455
侬	-13.5455
幺	-13.5455
哆	-13.5455
冇	-13.5456
嚎	-13.5456
馋	-13.5457
泯	-13.5457
嚟	-13.5458
掰	-13.5458
蛀	-13.5459
砾	-13.546
谚	-13.5461
隘	-13.5462
寮	-13.5462
椭	-13.5462
臧	-13.5464
鹊	-13.5464
蔓	-13.5467
叟	-13.5523
悄	-13.6171
矜	-13.6204
呻	-13.6206
啫	-13.6209
昉	-13.6212
髋	-13.6216
兀	-13.6217
睽	-13.6217
昇	-13.6217
榔	-13.6219
毋	-13.622
彷	-13.6221
涎	-13.6221
佢	-13.6222
炬	-13.6222
璜	-13.6222
猷	-13.6223
匈	-13.6224
溱	-13.6226
铎	-13.6226
魇	-13.6227
汐	-13.6227
鹂	-13.6229
壕	-13.623
翎	-13.6233
勐	-13.624
髻	-13.6242
噎	-13.625
嗡	-13.625
妾	-13.6907
α	-13.702
忱	-13.7024
咔	-13.7037
亘	-13.7041
荃	-13.7043
吠	-13.7043
撂	-13.7044
潞	-13.7044
抿	-13.7045
嗒	-13.7047
谒	-13.7047
耙	-13.7048
β	-13.7049
翌	-13.7051
疣	-13.7053
痢	-13.7054
啰	-13.7054
弩	-13.7055
楔	-13.7055
舔	-13.7056
澧	-13.7056
琍	-13.7058
荚	-13.7058
羟	-13.7058
蚝	-13.7059
珩	-13.7059
螨	-13.7059
抡	-13.7059
牒	-13.706
榛	-13.7061
巿	-13.7062
塍	-13.7063
蕃	-13.7063
馏	-13.7063
铣	-13.7064
烃	-13.7066
剁	-13.7066
辘	-13.7068
喽	-13.7069
憎	-13.707
臼	-13.7071
楹	-13.7075
噗	-13.7076
粼	-13.7083
邰	-13.7091
骅	-13.7941
聿	-13.795
杳	-13.7953
讼	-13.7954
沌	-13.7955
麂	-13.7957
湟	-13.7959
卣	-13.7959
桡	-13.796
濡	-13.7961
潸	-13.7962
虏	-13.7962
馍	-13.7963
垛	-13.7963
辐	-13.7963
嘭	-13.7964
恃	-13.7964
懦	-13.7965
盂	-13.7965
鸾	-13.7966
偃	-13.7966
邗	-13.7966
埗	-13.7967
盹	-13.7967
珏	-13.7968
蚤	-13.7969
锗	-13.7969
箔	-13.7969
钕	-13.797
嗑	-13.797
偲	-13.7971
翱	-13.7971
埂	-13.7971
搔	-13.7971
賨	-13.7972
貂	-13.7973
郫	-13.7974
吭	-13.7976
飒	-13.7978
掂	-13.7981
瘪	-13.7981
啄	-13.7983
谧	-13.7983
篓	-13.7985
釉	-13.7987
铯	-13.7987
堺	-13.8924
炕	-13.8928
眭	-13.8939
篱	-13.8947
埕	-13.8948
舀	-13.8948
跺	-13.8952
惴	-13.8952
鲢	-13.8953
嬷	-13.8953
嗤	-13.8954
⊙	-13.8954
坳	-13.8955
焯	-13.8957
噶	-13.8958
舶	-13.8958
嗦	-13.896
碴	-13.896
湮	-13.8961
婵	-13.8961
犒	-13.8961
蔫	-13.8962
蠓	-13.8963
捋	-13.8963
嘞	-13.8963
舸	-13.8963
熨	-13.8964
皑	-13.8964
侏	-13.8964
蛰	-13.8965
睢	-13.8965
牍	-13.8965
佯	-13.8965
咦	-13.8966
罡	-13.8967
旸	-13.8967
娣	-13.8967
筱	-13.8967
瓮	-13.8967
瘠	-13.8968
舫	-13.8969
莴	-13.897
纾	-13.897
茏	-13.8971
鞘	-13.8972
纂	-13.8972
漕	-13.8974
缇	-13.8974
倭	-13.8977
斟	-13.8977
踮	-13.8981
遁	-13.8984
涓	-13.8985
綦	-13.8987
噢	-13.9992
贰	-14.0046
贲	-14.0053
苹	-14.0056
±	-14.0056
碉	-14.0061
吱	-14.0066
隼	-14.0066
唑	-14.0066
笈	-14.0066
荻	-14.0067
郧	-14.0068
蛹	-14.0068
锭	-14.0068
聆	-14.0069
旎	-14.0069
旖	-14.0071
阖	-14.0072
攥	-14.0072
\	-14.0072
桁	-14.0072
叻	-14.0073
嚏	-14.0073
搪	-14.0074
玖	-14.0075
柞	-14.0075
楣	-14.0075
醴	-14.0077
坂	-14.0079
佤	-14.0079
峒	-14.0079
谘	-14.008
孪	-14.0081
霈	-14.0082
嘢	-14.0082
瞥	-14.0083
苒	-14.0085
祚	-14.0085
邛	-14.0086
萤	-14.0086
旻	-14.0087
酰	-14.0089
芃	-14.0091
瓤	-14.0094
蟠	-14.0096
颚	-14.0096
撵	-14.0096
枧	-14.0099
祐	-14.0154
鹗	-14.1301
赳	-14.1302
纨	-14.1307
糅	-14.1309
蓼	-14.1316
叼	-14.1318
坻	-14.1319
濑	-14.132
皿	-14.1321
丞	-14.1321
垭	-14.1322
嘣	-14.1323
膛	-14.1323
嗰	-14.1323
孺	-14.1324
喔	-14.1324
峦	-14.1325
邳	-14.1325
壅	-14.1325
佗	-14.1325
骐	-14.1325
柘	-14.1326
浚	-14.1326
焗	-14.1327
巳	-14.1329
畀	-14.1329
褴	-14.1329
殒	-14.133
蹚	-14.133
椁	-14.133
蜚	-14.133
哩	-14.133
瘸	-14.133
侑	-14.1331
诏	-14.1332
栎	-14.1332
锢	-14.1332
^	-14.1333
垠	-14.1333
咁	-14.1333
焖	-14.1334
樵	-14.1334
犊	-14.1334
怔	-14.1334
惭	-14.1335
铧	-14.1335
劵	-14.1336
噉	-14.1339
颍	-14.1347
咿	-14.1347
逄	-14.1353
冽	-14.1354
圪	-14.2728
槎	-14.2732
瑒	-14.2733
鳃	-14.2733
罔	-14.2734
迳	-14.2734
廿	-14.2739
酊	-14.2739
鼾	-14.274
麸	-14.2744
惘	-14.2744
郓	-14.2745
鎏	-14.2748
骜	-14.2749
咗	-14.2749
骛	-14.275
纰	-14.275
哒	-14.275
陛	-14.2751
嗝	-14.2751
擀	-14.2752
瞭	-14.2752
霹	-14.2752
濂	-14.2753
雳	-14.2753
鹳	-14.2753
ā	-14.2753
宥	-14.2753
稷	-14.2754
呃	-14.2754
浣	-14.2754
札	-14.2755
螟	-14.2755
跛	-14.2755
厝	-14.2756
郄	-14.2756
蛤	-14.2756
宸	-14.2756
盅	-14.2757
镝	-14.2758
吒	-14.2758
澍	-14.2758
怅	-14.2759
垸	-14.276
蛊	-14.2761
褂	-14.2762
脲	-14.2762
陲	-14.2763
芡	-14.2763
烩	-14.2764
刍	-14.2764
莒	-14.2765
昶	-14.2766
俣	-14.2766
蓑	-14.2766
蔻	-14.2767
霰	-14.2772
窕	-14.2772
骞	-14.2773
窠	-14.2774
叽	-14.2782
苄	-14.4369
耧	-14.4375
琮	-14.439
漖	-14.4391
攫	-14.4395
囔	-14.4396
凰	-14.4401
碜	-14.4404
骡	-14.4404
谲	-14.4404
恣	-14.4404
喳	-14.4404
磡	-14.4406
箕	-14.4408
锷	-14.4408
岿	-14.4409
蚜	-14.4409
擘	-14.4409
遒	-14.4409
茱	-14.441
黠	-14.441
笙	-14.4411
枷	-14.4411
霎	-14.4411
衎	-14.4412
饴	-14.4412
葺	-14.4413
篝	-14.4413
蜱	-14.4413
躏	-14.4413
蹂	-14.4414
扪	-14.4414
洵	-14.4414
坜	-14.4415
艏	-14.4416
撷	-14.4416
蝈	-14.4416
啱	-14.4416
尕	-14.4417
煳	-14.4417
俾	-14.4418
煊	-14.4418
脘	-14.4418
蕨	-14.4418
糜	-14.4418
燮	-14.4418
睐	-14.4419
渥	-14.4419
碶	-14.4419
涔	-14.4419
稣	-14.442
咂	-14.4421
谏	-14.4422
龊	-14.4422
墒	-14.4423
骺	-14.4423
嫡	-14.4423
豇	-14.4423
揖	-14.4424
骢	-14.4424
遑	-14.4424
惆	-14.4425
泷	-14.4425
龌	-14.4426
羸	-14.4426
帛	-14.4426
淝	-14.4426
熹	-14.4426
垚	-14.4426
―	-14.4427
怵	-14.4427
褛	-14.4427
炷	-14.4428
涣	-14.4428
苷	-14.4429
舢	-14.443
龈	-14.443
崧	-14.4431
耄	-14.4432
耋	-14.4432
舛	-14.4432
掇	-14.4433
锟	-14.4434
瘘	-14.4434
淙	-14.4435
腴	-14.4438
酞	-14.4438
耦	-14.4439
窈	-14.444
朐	-14.4442
锃	-14.4448
葭	-14.4452
醣	-14.4486
嗣	-14.4511
绫	-14.6346
犟	-14.6375
唧	-14.6379
嚓	-14.6381
舐	-14.6387
汆	-14.639
铡	-14.6392
愫	-14.6393
幔	-14.6395
疴	-14.6403
旮	-14.6404
煨	-14.6405
栉	-14.6405
庹	-14.6406
溏	-14.6406
喏	-14.6407
蓦	-14.6407
驷	-14.6408
啻	-14.6409
逵	-14.6411
颧	-14.6412
陟	-14.6412
飨	-14.6413
膘	-14.6413
糠	-14.6413
塱	-14.6414
蘅	-14.6414
饯	-14.6414
缢	-14.6414
倌	-14.6414
傕	-14.6414
汜	-14.6414
鲶	-14.6414
驮	-14.6415
氛	-14.6415
垄	-14.6415
嗔	-14.6416
汊	-14.6416
悭	-14.6416
嗞	-14.6417
玟	-14.6417
钴	-14.6418
阚	-14.6418
袄	-14.6419
阑	-14.6419
』	-14.642
『	-14.642
嬅	-14.642
蜊	-14.642
伢	-14.6421
粑	-14.6421
隍	-14.6421
钿	-14.6421
忪	-14.6421
臵	-14.6422
癸	-14.6422
í	-14.6422
谕	-14.6422
痔	-14.6422
蛆	-14.6423
雒	-14.6423
敝	-14.6423
臊	-14.6423
谟	-14.6424
芍	-14.6424
喋	-14.6424
撅	-14.6424
壬	-14.6424
悯	-14.6425
淦	-14.6425
鞣	-14.6425
砟	-14.6425
蓥	-14.6425
懑	-14.6425
晁	-14.6425
猗	-14.6426
铨	-14.6426
迤	-14.6426
槛	-14.6426
哧	-14.6427
捶	-14.6427
匐	-14.6427
萘	-14.6427
掴	-14.6428
凼	-14.6428
羔	-14.6429
虢	-14.6429
仃	-14.643
镭	-14.643
彧	-14.643
噌	-14.6432
荇	-14.6433
傣	-14.6433
茴	-14.6433
俸	-14.6433
锒	-14.6435
搽	-14.6436
馊	-14.6436
蟊	-14.6436
鹌	-14.6436
荏	-14.6437
鹑	-14.6437
擞	-14.6442
潦	-14.6442
弢	-14.6445
蟋	-14.6449
鲑	-14.6449
噙	-14.6451
蟀	-14.6451
蹇	-14.6452
鬟	-14.6452
喙	-14.6455
埤	-14.6472
昀	-14.6505
颞	-14.8786
嘤	-14.8844
峁	-14.8859
沣	-14.8878
钽	-14.888
桎	-14.8881
梏	-14.8881
蕤	-14.8882
讶	-14.8884
魉	-14.8887
魍	-14.8887
哏	-14.8891
哐	-14.8894
讦	-14.8896
宓	-14.8897
滂	-14.8897
驸	-14.8897
旯	-14.8897
蕞	-14.8897
钡	-14.8898
蚩	-14.8898
垟	-14.8899
戾	-14.8899
戗	-14.89
萸	-14.89
恸	-14.8902
捭	-14.8902
颏	-14.8903
笆	-14.8904
弑	-14.8905
吮	-14.8905
恻	-14.8906
浔	-14.8908
鲈	-14.8909
倥	-14.8909
疝	-14.8909
诣	-14.891
芘	-14.8911
嵛	-14.8911
瞩	-14.8912
耆	-14.8913
疍	-14.8913
珐	-14.8913
歙	-14.8914
珲	-14.8914
荠	-14.8915
槃	-14.8916
鲀	-14.8916
囝	-14.8916
骰	-14.8916
陌	-14.8917
揾	-14.8917
膈	-14.8917
牯	-14.8917
呯	-14.8918
溥	-14.8918
铰	-14.8918
鲟	-14.8919
燚	-14.8919
璺	-14.8919
讆	-14.8919
铍	-14.8919
囡	-14.8919
孑	-14.8919
麽	-14.8919
谆	-14.892
崃	-14.892
芎	-14.892
鳊	-14.8921
囫	-14.8921
聩	-14.8921
呾	-14.8921
垌	-14.8921
倬	-14.8921
}	-14.8922
箰	-14.8922
拶	-14.8922
垃	-14.8922
锶	-14.8922
囵	-14.8922
叁	-14.8923
馗	-14.8923
鲩	-14.8923
犄	-14.8923
珣	-14.8923
咩	-14.8923
檄	-14.8923
逦	-14.8924
徇	-14.8924
铳	-14.8925
邨	-14.8925
毑	-14.8925
娭	-14.8925
恫	-14.8925
趵	-14.8925
鲐	-14.8925
泮	-14.8925
浈	-14.8925
鬣	-14.8925
{	-14.8926
椹	-14.8926
柩	-14.8926
瘁	-14.8926
掮	-14.8926
鸬	-14.8926
鹚	-14.8926
铩	-14.8927
晞	-14.8927
戆	-14.8927
撙	-14.8927
枰	-14.8927
羿	-14.8928
鸢	-14.8928
怿	-14.8928
匍	-14.8929
孓	-14.8929
锨	-14.8929
戌	-14.893
馀	-14.893
泅	-14.893
赈	-14.8931
缈	-14.8931
缥	-14.8931
俚	-14.8932
腚	-14.8932
阈	-14.8932
瀼	-14.8932
羯	-14.8932
簪	-14.8932
遢	-14.8934
濯	-14.8934
怆	-14.8934
虻	-14.8934
桅	-14.8935
箐	-14.8935
捱	-14.8935
邋	-14.8936
豉	-14.8936
筵	-14.8937
弭	-14.8937
龋	-14.8937
诲	-14.8939
讫	-14.894
璘	-14.8941
椪	-14.8941
蹑	-14.8942
杈	-14.8943
醍	-14.8944
蠲	-14.8944
胛	-14.8944
氦	-14.8945
滠	-14.8947
槲	-14.8954
锑	-14.8956
韡	-14.8957
靥	-14.8957
鲲	-14.8975
蒟	-14.9054
蒻	-14.9055
崆	-15.2134
隰	-15.2168
燊	-15.2199
瞟	-15.2203
绔	-15.2205
觥	-15.2216
竣	-15.2217
轲	-15.2218
魃	-15.2219
魑	-15.2219
溟	-15.222
蠡	-15.2224
踯	-15.2228
躅	-15.2228
俎	-15.2228
笺	-15.2228
皎	-15.2229
轳	-15.223
啷	-15.2231
龃	-15.2232
龉	-15.2232
倨	-15.2233
玷	-15.2234
椽	-15.2234
琚	-15.2234
悱	-15.2236
μ	-15.2236
屾	-15.2236
璎	-15.2237
祼	-15.2238
偈	-15.2239
傩	-15.2239
榉	-15.224
埝	-15.224
腈	-15.2241
洄	-15.2241
嵬	-15.2242
篙	-15.2243
糍	-15.2243
谯	-15.2243
疃	-15.2244
啜	-15.2244
嗲	-15.2245
噤	-15.2245
籼	-15.2245
侪	-15.2246
↓	-15.2247
硖	-15.2247
趄	-15.2247
趔	-15.2247
耵	-15.2248
聍	-15.2248
掳	-15.2248
蹩	-15.2248
嗪	-15.2249
腓	-15.2249
澥	-15.2249
甁	-15.2249
碓	-15.2249
羱	-15.2249
畈	-15.225
绀	-15.225
汴	-15.2251
鄢	-15.2252
佃	-15.2252
吖	-15.2252
訾	-15.2252
嗖	-15.2253
∑	-15.2253
篼	-15.2253
苁	-15.2253
跎	-15.2253
蹉	-15.2253
韪	-15.2253
屙	-15.2253
戬	-15.2253
溁	-15.2254
荼	-15.2254
芗	-15.2254
悌	-15.2254
椿	-15.2254
蒴	-15.2254
畦	-15.2254
俶	-15.2255
唛	-15.2255
谂	-15.2255
绌	-15.2255
旌	-15.2255
噔	-15.2256
炔	-15.2256
氰	-15.2256
妪	-15.2256
焓	-15.2256
颦	-15.2257
ü	-15.2257
昴	-15.2257
殁	-15.2257
蹙	-15.2257
郾	-15.2257
秣	-15.2257
锺	-15.2257
暌	-15.2257
甭	-15.2258
↑	-15.2258
谳	-15.2258
罍	-15.2258
馼	-15.2258
庖	-15.2259
娌	-15.2259
潴	-15.2259
绺	-15.2259
黜	-15.2259
摈	-15.2259
妯	-15.2259
砻	-15.2259
硙	-15.2261
→	-15.2261
垧	-15.2261
塭	-15.2261
蔄	-15.2261
螈	-15.2261
衩	-15.2261
枥	-15.2261
镗	-15.2261
婀	-15.2261
鸨	-15.2261
甾	-15.2262
仝	-15.2262
圜	-15.2262
飏	-15.2262
`	-15.2263
葚	-15.2263
佶	-15.2263
峤	-15.2264
鲠	-15.2264
砼	-15.2264
镕	-15.2264
嗬	-15.2265
荜	-15.2265
峄	-15.2266
诘	-15.2267
诶	-15.2268
忿	-15.2268
枇	-15.2269
辊	-15.2269
镬	-15.2269
巽	-15.2272
滟	-15.2273
杷	-15.2273
泫	-15.2275
晌	-15.2275
佞	-15.2275
琇	-15.228
觞	-15.2282
蚱	-15.2284
醐	-15.2284
镦	-15.2284
淬	-15.2285
枞	-15.2287
郦	-15.2292
砣	-15.2293
箅	-15.23
鹧	-15.2305
鸪	-15.2307
娉	-15.7171
抟	-15.7192
擢	-15.7193
忒	-15.7195
椠	-15.7204
揠	-15.721
∩	-15.7223
撺	-15.7223
忤	-15.7226
で	-15.7229
呷	-15.7229
婢	-15.7231
沏	-15.7232
俬	-15.7234
た	-15.7236
だ	-15.7236
っ	-15.7236
な	-15.7236
ク	-15.7236
リ	-15.7236
ン	-15.7236
ー	-15.7236
呦	-15.7236
宦	-15.7236
徔	-15.7236
啈	-15.7237
柒	-15.724
氡	-15.7242
僮	-15.7242
仞	-15.7242
傈	-15.7245
僳	-15.7245
埭	-15.7245
挲	-15.7245
垡	-15.7247
嶂	-15.7248
屐	-15.7248
蛟	-15.7249
幷	-15.725
崑	-15.7251
呲	-15.7251
枋	-15.7251
撸	-15.7251
哝	-15.7253
卅	-15.7253
呋	-15.7253
崮	-15.7254
暻	-15.7254
啐	-15.7255
噻	-15.7255
尐	-15.7255
椋	-15.7255
樽	-15.7256
増	-15.7256
垅	-15.7256
峇	-15.7257
嵋	-15.7258
捻	-15.7258
佚	-15.7258
冢	-15.7258
桤	-15.7258
嫚	-15.7258
儆	-15.7259
凫	-15.7259
媗	-15.7259
悻	-15.7259
搧	-15.7259
捌	-15.726
榫	-15.726
埮	-15.7261
Ψ	-15.7261
揲	-15.7261
楮	-15.7261
○	-15.7261
亷	-15.7262
檩	-15.7262
椴	-15.7264
恽	-15.7264
曜	-15.7264
桉	-15.7267
剡	-15.7267
氤	-15.7267
氲	-15.7267
岈	-15.7269
嵖	-15.7269
殄	-15.727
勖	-15.727
奘	-15.727
査	-15.727
偬	-15.7271
侩	-15.7273
恵	-15.7277
徳	-15.728
榀	-15.7283
斛	-15.7289
揩	-15.7292
叵	-15.7295
垓	-15.7314
咛	-15.7323
岀	-16.6913
〇	-16.6914
鹘	-16.6915
鹱	-16.6916
镔	-16.6917
袪	-16.6918
忾	-16.6919
幄	-16.692
鸩	-16.6921
赅	-16.6922
烜	-16.6923
檗	-16.6924
桀	-16.6925
垩	-16.6926
啶	-16.6927
刽	-16.6928
÷	-16.6929
隗	-16.693
蹶	-16.6931
诨	-16.6932
稞	-16.6933
湎	-16.6934
唳	-16.6935
倮	-16.6936
镣	-16.6937
铄	-16.6938
轫	-16.6939
蜃	-16.694
蚴	-16.6941
蒌	-16.6942
茌	-16.6943
箴	-16.6944
磲	-16.6945
砗	-16.6946
砒	-16.6947
矍	-16.6948
涠	-16.6949
棹	-16.695
忏	-16.6951
徨	-16.6952
弼	-16.6953
嬗	-16.6954
娩	-16.6955
娈	-16.6956
噜	-16.6957
龅	-16.6958
鸵	-16.6959
鳅	-16.696
阂	-16.6961
邾	-16.6962
谀	-16.6963
襁	-16.6964
褓	-16.6965
裨	-16.6966
袤	-16.6967
蛎	-16.6968
茁	-16.6969
苡	-16.697
肛	-16.6971
稉	-16.6972
眈	-16.6973
痧	-16.6974
瀞	-16.6975
滉	-16.6976
泔	-16.6977
橼	-16.6978
揶	-16.6979
揄	-16.698
掸	-16.6981
怦	-16.6982
吩	-16.6983
儡	-16.6984
傀	-16.6985
伫	-16.6986
仄	-16.6987
鳜	-16.6988
髅	-16.6989
骷	-16.699
迂	-16.6991
蹋	-16.6992
诅	-16.6993
蛳	-16.6994
蔼	-16.6995
葩	-16.6996
糨	-16.6997
矾	-16.6998
犍	-16.6999
潟	-16.7
啕	-16.7001
偻	-16.7002
佝	-16.7003
锲	-16.7004
耷	-16.7005
矬	-16.7006
睑	-16.7007
瘙	-16.7008
痼	-16.7009
畿	-16.701
獾	-16.7011
渼	-16.7012
桷	-16.7013
唢	-16.7014
鹞	-16.7015
镳	-16.7016
躇	-16.7017
踌	-16.7018
讣	-16.7019
觎	-16.702
觊	-16.7021
茯	-16.7022
粳	-16.7023
甥	-16.7024
麾	-16.7025
鸳	-16.7026
馄	-16.7027
饨	-16.7028
醺	-16.7029
谑	-16.703
藁	-16.7031
畊	-16.7032
猬	-16.7033
憔	-16.7034
悴	-16.7035
恿	-16.7036
伉	-16.7037
馁	-16.7038
豌	-16.7039
诋	-16.704
蜈	-16.7041
蚣	-16.7042
藐	-16.7043
筇	-16.7044
瞌	-16.7045
燎	-16.7046
烬	-16.7047
洨	-16.7048
搡	-16.7049
掬	-16.705
餮	-16.7051
鞨	-16.7052
靺	-16.7053
镌	-16.7054
莠	-16.7055
臃	-16.7056
纫	-16.7057
牦	-16.7058
滹	-16.7059
汩	-16.706
惚	-16.7061
徜	-16.7062
徉	-16.7063
孀	-16.7064
奄	-16.7065
嗷	-16.7066
阆	-16.7067
肮	-16.7068
篑	-16.7069
狙	-16.707
揆	-16.7071
孱	-16.7072
鹦	-16.7073
鹉	-16.7074
蜿	-16.7075
蜒	-16.7076
砝	-16.7077
眙	-16.7078
盱	-16.7079
獐	-16.708
狈	-16.7081
犷	-16.7082
鹜	-16.7083
鳕	-16.7084
迩	-16.7085
踉	-16.7086
跚	-16.7087
跄	-16.7088
脍	-16.7089
胫	-16.709
痫	-16.7091
嬛	-16.7092
妲	-16.7093
夙	-16.7094
嘹	-16.7095
儋	-16.7096
鱿	-16.7097
谛	-16.7098
蓿	-16.7099
芑	-16.71
筎	-16.7101
秭	-16.7102
硚	-16.7103
攸	-16.7104
谩	-16.7105
礴	-16.7106
瞠	-16.7107
疙	-16.7108
琵	-16.7109
楂	-16.711
岖	-16.7111
奂	-16.7112
啬	-16.7113
痊	-16.7114
痉	-16.7115
涸	-16.7116
娼	-16.7117
偌	-16.7118
锏	-16.7119
胧	-16.712
罘	-16.7121
祟	-16.7122
痿	-16.7123
陉	-16.7124
邃	-16.7125
邂	-16.7126
逅	-16.7127
诩	-16.7128
蜻	-16.7129
蜓	-16.713
矗	-16.7131
瑚	-16.7132
惺	-16.7133
鯬	-16.7134
腑	-16.7135
胱	-16.7136
帼	-16.7137
赝	-16.7138
啧	-16.7139
咙	-16.714
诿	-16.7141
缜	-16.7142
狩	-16.7143
诙	-16.7144
螳	-16.7145
胭	-16.7146
罂	-16.7147
咄	-16.7148
纭	-16.7149
搐	-16.715
媞	-16.7151
婪	-16.7152
咆	-16.7153
酗	-16.7154
癀	-16.7155
匕	-16.7156
鏖	-16.7157
谤	-16.7158
诽	-16.7159
籁	-16.716
窿	-16.7161
淆	-16.7162
氓	-16.7163
徙	-16.7164
咫	-16.7165
咤	-16.7166
呱	-16.7167
湍	-16.7168
忑	-16.7169
忐	-16.717
娠	-16.7171
妊	-16.7172
屌	-16.7173
媲	-16.7174
吆	-16.7175
岌	-16.7176
遴	-16.7177
蜴	-16.7178
獗	-16.7179
圻	-16.718
囱	-16.7181
饽	-16.7182
菠	-16.7183
菖	-16.7184
腼	-16.7185
腆	-16.7186
涞	-16.7187
皙	-16.7188
琶	-16.7189
哽	-16.719
黝	-16.7191
鳗	-16.7192
髦	-16.7193
榈	-16.7194
邡	-16.7195
讴	-16.7196
袱	-16.7197
茉	-16.7198
眶	-16.7199
惋	-16.72
忡	-16.7201
阪	-16.7202
沮	-16.7203
抉	-16.7204
惬	-16.7205
螃	-16.7206
猖	-16.7207
赂	-16.7208
咐	-16.7208
紊	-16.7209
窨	-16.721
戛	-16.7211
譬	-16.7212
缤	-16.7213
兢	-16.7214
稼	-16.7215
喱	-16.7216
跆	-16.7217
篪	-16.7218
漯	-16.7219
侥	-16.722
憧	-16.7221
噱	-16.7222
蹊	-16.7223
饪	-16.7224
讧	-16.7225
蝴	-16.7226
丐	-16.7227
窒	-16.7228
俨	-16.7229
蒗	-16.723
猕	-16.7231
馒	-16.7232
汹	-16.7233
崂	-16.7234
缮	-16.7235
劾	-16.7236
骼	-16.7237
牡	-16.7238
霾	-16.7239
诟	-16.724
挝	-16.7241
娓	-16.7242
悚	-16.7243
阱	-16.7244
痪	-16.7245
挚	-16.7246
谅	-16.7247
葫	-16.7248
橄	-16.7249
酋	-16.725
蜘	-16.7251
叭	-16.7252
徘	-16.7253
帜	-16.7254
崭	-16.7255
衅	-16.7256
酝	-16.7257
亟	-16.7258
圳	-16.7259
膊	-16.7259
懈	-16.726
谴	-16.7261
蝠	-16.7262
蝙	-16.7263
寞	-16.7264
啡	-16.7265
牺	-16.7266
惕	-16.7267
酵	-16.7268
迄	-16.7269
肪	-16.727
浏	-16.7271
崛	-16.7272
尴	-16.7273
尬	-16.7274
侈	-16.7275
秩	-16.7276
怖	-16.7277
赁	-16.7278
逻	-16.7279
璃	-16.728
萄	-16.7281
圾	-16.7282
础	-16.7282
